/**
  ******************************************************************************
  * @file    network_data_params.c
  * @author  AST Embedded Analytics Research Platform
  * @date    2025-04-14T16:47:26+0900
  * @brief   AI Tool Automatic Code Generator for Embedded NN computing
  ******************************************************************************
  * Copyright (c) 2025 STMicroelectronics.
  * All rights reserved.
  *
  * This software is licensed under terms that can be found in the LICENSE file
  * in the root directory of this software component.
  * If no LICENSE file comes with this software, it is provided AS-IS.
  ******************************************************************************
  */

#include "network_data_params.h"
#if defined ( __ICCARM__ )
#define AI_EXTERNAL_FLASH    _Pragma("location=\"ExternalFlashSection\"")
#define AI_INTERNAL_FLASH    _Pragma("location=\"InternalFlashSection\"")
#elif defined ( __CC_ARM ) || ( __GNUC__ )
#define AI_EXTERNAL_FLASH    __attribute__((section(".ExternalFlashSection")))
#define AI_INTERNAL_FLASH    __attribute__((section(".InternalFlashSection")))
#endif


/**  Activations Section  ****************************************************/
ai_handle g_network_activations_table[1 + 2] = {
  AI_HANDLE_PTR(AI_MAGIC_MARKER),
  AI_HANDLE_PTR(NULL),
  AI_HANDLE_PTR(AI_MAGIC_MARKER),
};




/**  Weights Section  ********************************************************/
AI_ALIGNED(32)
AI_INTERNAL_FLASH
const ai_u64 s_network_weights_array_u64[5598] = {
  0xf30df33abf3c4befU, 0x2530f8f02430c335U, 0x3716c416d5c2531cU, 0x2a0fe52b30320581U,
  0x26041e6c06285335U, 0xf40268c1c27f5b47U, 0xacf7b5e5b2421117U, 0x49f798e0081341e5U,
  0x161e6ee6f80a10ceU, 0x43240012e1bd8120U, 0xea17c08110d337c3U, 0xd221941901780b2aU,
  0x2599d10e0bcba2f1U, 0x26028e7fda93e40eU, 0x99564b64411f1836U, 0x504048f8fce5ffb7U,
  0xec0cfd173d2ed394U, 0x56fbebef2237502fU, 0x75113631ed1cfbb6U, 0x16f629f845efbbd0U,
  0xadbe04a15adf27fU, 0x10f72601d943dfc0U, 0xba50dc9eadc781feU, 0xc99b0ccefb2b01acU,
  0x11476489eccb0d2cU, 0x702fa9fcbc3faaaU, 0xc6d7ee001d37bb7fU, 0xccfa170fcdee45c5U,
  0x340902e00ddb0181U, 0x20d81a070d15b9a5U, 0x36393967f8f7bbfdU, 0xff610cd521e3cf1dU,
  0x54e1eaea9b81f134U, 0x6c214fdd6530300dU, 0xe5810cfcf6f504dcU, 0xafeff5df1cda18aeU,
  0xd3ca0befe017ffeeU, 0x17130bf4fe7f21a7U, 0xfc1d33d0a85dd033U, 0x1a1dbbbe564bf0e9U,
  0x302ddb201c235418U, 0xf81cdf22719ec47U, 0x74e71fd0274eec55U, 0xde4dd5495154f22eU,
  0x197d81e9504a2a5eU, 0xfeca24f65a2de9c9U, 0xf20b4b5252aff108U, 0x3f3d61f2d3135b8U,
  0xfdd8f4342555e3d2U, 0xf82cc91efde2a6f9U, 0xdb27d9dee2810ecbU, 0xdd8d12bd12735bdU,
  0x32e708bd12d70815U, 0xe3f5bfd9f5403e7fU, 0x5eb8ec0a41f9e0b1U, 0xcd3ad366d981c47cU,
  0x2e386d1d24025a68U, 0xb7d92d3ae4414befU, 0xd631c3f3063653c7U, 0x20acfc31027feb12U,
  0xf056faeb30c7d9c7U, 0xdea2e5dd28054ea5U, 0x81ad02d92fe99d79U, 0xbc49032543bc19e7U,
  0xfdd20f70930ff31U, 0xe614c8239c01bf1bU, 0x103df87f2d0b3d38U, 0x3ae281bec4eec5d6U,
  0xbedced9fe0e8e834U, 0x2de306ecfbf6ea39U, 0x48ccdfd2ec290619U, 0x61c825f32437d27fU,
  0xb80adff804ce1630U, 0x4ddafb1c0f6f19e1U, 0xbc4fd72fbd905e93U, 0xe33c57fa83d2d7fU,
  0x10c353adf00464dcU, 0x20bb17ef26b6053aU, 0xd236bfd0e9defae1U, 0x140944c209e0e204U,
  0x58fb7ffe12e4122fU, 0x68544d1e37f4f21bU, 0x281a0b1e31590b94U, 0xf615171d81d7b405U,
  0xc051a3bee011f65U, 0xc7da50e4ad974d1fU, 0x5628c0de892ac429U, 0xa9f52781ceaccaffU,
  0xa27eef2206c04d39U, 0x481f8de31633aa4U, 0x9df7daea31447dbbU, 0xe5cc0ab7b9b8c0efU,
  0xcce181bda2e0a70dU, 0xba9f199728fc3a96U, 0x82f0c0f6c574eacU, 0x65623c03c95eefeaU,
  0x1c6d7f3ce8fa07bfU, 0xeecc5d7018f3d427U, 0x16d057daddee01edU, 0x8cb08f4ee26faf7U,
  0x81fde4e51cf6cafbU, 0xe1cdf2efa20eee7U, 0x18cde2aa26f5ebd0U, 0xb31a14f007f8d607U,
  0xd56e90f00881f1e0U, 0x5ead3234f3bdeb2bU, 0xb231707f04e61ef5U, 0x23207331dde5fe26U,
  0xffffeec0ffffd03aU, 0xffffa9a7000009dcU, 0xffffdbf1000008b5U, 0x3669ffffc6ebU,
  0xffffeea1fffff37dU, 0xffffe90effffdd92U, 0xfffff2c000000449U, 0xffffed09ffffe514U,
  0xffffd942ffffff26U, 0xffffcae800000927U, 0xd7fffffec8dU, 0xffffe0f9ffff9d36U,
  0xffffd0d2ffffd083U, 0xffffd1e4ffffd06eU, 0xffffea08ffffc4f1U, 0xffffc200ffffc6d8U,
  0xebf923221ad25b33U, 0xaed6f924dbf20a0aU, 0xcff80cd2e7112bccU, 0x1001bdd3f1b50f48U,
  0xdde5f8fa31c53816U, 0x88082c12c50efe14U, 0xe522dde8dedcf3e5U, 0x10d3385f3f9ea00U,
  0xdcf7e7ee3bae0333U, 0xb34704ffc7112713U, 0x200bfede916f9f2U, 0xd3543381fb07f7ceU,
  0xe1c3da180d2e19e9U, 0x20a9a40238c0a131U, 0x21f4e60e5a0a2ec1U, 0xf5d0203e12eae2b1U,
  0x5e1b847eafa4ccbU, 0x42971c13ef930a29U, 0x2ac63a250a0be941U, 0xdce7f8e12309f6adU,
  0x28d713402bcf14e1U, 0x1cb881d717eccc32U, 0xf13a61ad936224cU, 0x39d6ca02c112eb31U,
  0x3bed2625cc06f3beU, 0xe02dffc9bfefcfcU, 0xcb1e5ae515cf10aaU, 0xa2d04dbcdfd14e8U,
  0x15fa1e8eeaf1ead5U, 0x2004cf0be8dd18e1U, 0xe8e23810010ae3aaU, 0x15da1114b727201cU,
  0x62c0981e80fd2cbU, 0x63017ea043216f7U, 0xc0d52fdee6c30286U, 0x28421ddccf323208U,
  0x3910e6ebc14f06dbU, 0x37fdee024bfa3422U, 0xa0432417eede81f8U, 0xd8c1c2e20510140cU,
  0x1ef75fe0d436eb2aU, 0x1e1428129b1fe52dU, 0xf1f139fc23f0d531U, 0x13cee5581cb7f5a9U,
  0x23a9f193b7b53604U, 0xa01072b3c1db051U, 0x1bef19481807c309U, 0xbecf1ad61a28f620U,
  0xd43bf9ba01bb0122U, 0xee417eae0fa545bU, 0xc6ed32ba21dc86d5U, 0xcae52b190fd828b5U,
  0x1126140c1029330bU, 0xdb4dfec0bab13e6U, 0xeaf2fe23cdd1bc0eU, 0xf8cf813c2488c940U,
  0x1cc17c74cb622610U, 0xcb12c414fbe3e0beU, 0x3111cfc3371d00d5U, 0x2ed8e359cafd140bU,
  0x1f17f9abf60feed0U, 0xdff5e1bfe9e9ede4U, 0xfef10b00e8fe14b4U, 0xb2a31ef1170c20f7U,
  0xe11f681eb0803c0U, 0xf1e5e9efdde7d50cU, 0xf1d92101ec2610e4U, 0xc4af17f7211512e8U,
  0x9e6eec4eff701d9U, 0xef06fecaa901ad00U, 0xd7f604220908fd0fU, 0xd0b815f0290712cfU,
  0xe3bfc24ffaecc1aU, 0xfdee0bf4f0dd760eU, 0x3300daa93339b4d8U, 0xddc3cd3b7fb5f211U,
  0xa4ff31e8edcd263fU, 0xa4043ff2a35e4f4U, 0xe204f21518c2e807U, 0x2d1e35ec090af109U,
  0x5a718cceea8d10e1U, 0xd7cceff9eedf23eaU, 0xdc2356f3e25ad4a1U, 0x2003424ef2200d9U,
  0xdc1d12e025bcc204U, 0x2df6f081dd272bf7U, 0x16fdabf807321903U, 0x230af1fc17e5b83eU,
  0xc900fde1148fc916U, 0x2115008c03280e0cU, 0xfbf5bacd2a2226d8U, 0x3418e7cdfafbda10U,
  0xaf01e1000ed1af0cU, 0x13e0eda6c3f813f0U, 0xf80ddccac91217e9U, 0x1fe5fdeef9f2da14U,
  0x1aee2e12fd83f037U, 0x37011ed612dce0a8U, 0xaff7edf90a09c45fU, 0x1cf8e001fe230b19U,
  0x1e0afe1be6afbc0eU, 0xeaa104ee12f62bfaU, 0xdae918ca09fde44fU, 0x20dfb7fdfc260406U,
  0xd6fb230df2bcd737U, 0xafe25118e3d5f305U, 0xd8feebf8a531812cU, 0xf0eacac1dad9d1e7U,
  0x431b0c2ecf040f2dU, 0x2120e8e806211a09U, 0xc52d25f917dbfe11U, 0x16f11dfaee16febaU,
  0xfa1ddf0cfbc70a0cU, 0x53df7c40c1701f0U, 0xddeaf0d5dffbd107U, 0xf2ef0fdff70b0bcdU,
  0xc42bc4fd12cbd607U, 0x1b1332d8111433ffU, 0xfd0dbdf0b02810bU, 0xdd050fb016ed03f2U,
  0x1519233081092bddU, 0x6e2dc111ceffd33U, 0xf8fde700ee0961U, 0x1edf0ee18000d14U,
  0x816e20fc52926bdU, 0xfbf20dbb0e1cd409U, 0xe815b23007ca1202U, 0xdccb05f8f8f20710U,
  0xed3add0ae1d636e5U, 0x2e072aeeeaf3f154U, 0xc9ee1b2e2415c5efU, 0xc2f253f1e50b0cd7U,
  0xfd280ed4ffda1bfeU, 0x704ed2a28fc0dedU, 0xfd062a14031deca3U, 0x10ccd018e4eb09e8U,
  0xd417d01bf4e337faU, 0xf2ff0d05113b1532U, 0x81002209c33be1f0U, 0xeaf0f301c7e03c2aU,
  0x13dd4c2e60a1907U, 0xcde9f1a6092a0d16U, 0xc0d2250fe811d5fbU, 0x2fce1fd05f317d2U,
  0xf6f4d92f09ecf3f1U, 0xf2e15b09d66e2532U, 0x160ff22816d711ebU, 0x1bf4f4e712241e05U,
  0xdebe2110c03e7a9U, 0x2bd222e0e4f8e5ddU, 0x28f7ec4719eb05caU, 0x11ccfe06221dd8f5U,
  0xf402e5140100eab5U, 0x14f4e581dffbea1eU, 0xf009bf0a13e900f5U, 0xdcf004802e6ffe7U,
  0xeff6fb362c8af008U, 0xe5a781e705df151cU, 0x1e2602e707f2a7edU, 0x3bd5cdf042b423e5U,
  0xc012e01c05b7de33U, 0x8f0ca7f921dd051dU, 0x162028cbfd229709U, 0x1d1c26f809e33ccbU,
  0xf20bf6fa2cc81a31U, 0x96c11f26fe401921U, 0xb0f2eca10af49ffbU, 0xf20cea1016db350dU,
  0xe1c4c02b5f022f9U, 0x2312d108cbd300aU, 0x98fd2d068361f523U, 0xeab314819cdb0b0dU,
  0xcff92d0bb61c2dfcU, 0xee52718c0edf24aU, 0xc40aec2c993bd6faU, 0x15daa4b5aebe36dfU,
  0xbcee2e15d81c2401U, 0xc9ae7d8b3abf811U, 0xf1f7fb35e52c00ecU, 0x2bd2bf2e0198fd12U,
  0x9c8d0f8f6f2f8f6U, 0xc6f1e01efe81fce9U, 0x3f07dd24aae2d1fbU, 0xd815ff07dd160ad7U,
  0x1908160604d21005U, 0xd9f9f5f722ccf9f0U, 0x130120f4f40dd9fcU, 0xec0c0a0f00fb17c9U,
  0xd52b2a0d07fd23efU, 0xea3a1be421e82a04U, 0x8dafab8ea0def1fU, 0xf08041f2cfcfd18U,
  0x89b2201c3c26e81fU, 0xcfca1b1102bc1e13U, 0xe60d96f8faeaf651U, 0x108e00501bac616U,
  0xf3eb31310a30e5fdU, 0xd7a3d70ecbdae9d4U, 0x5d24c3eaf9d60a38U, 0x101a9101cb69f33U,
  0xa48136f74636fb26U, 0xfc002b1b1de3bcdbU, 0x332020c332e732ffU, 0x62e970d02a8e641U,
  0x4336f51112c646efU, 0xc0899d9cdb6c5feU, 0xe4fc05effef6d9f9U, 0xee1e3def341023b5U,
  0x221bda0a03c2e810U, 0x2fae8e6b6ed03f4U, 0x1211cf3d421b914U, 0xa230b083cfa2b81U,
  0x1e0d1d0ae6dabfffU, 0x1fac61fd9cdfde0U, 0xf00f3ef5fbeafaf1U, 0x2c07d9df0013fecaU,
  0x6d5cb16fd3f3320U, 0x1b361317fa05dfd7U, 0xe303e9b9f0fdf7eaU, 0x10eae9e09dcf951aU,
  0x44f0f01ee4320005U, 0x200eeee41f36e3c8U, 0xf8eec78110133ad4U, 0xe0ed28e8b2d39eeeU,
  0xfa21e919ea2a1bfdU, 0xfa3cf3dc031cc4f1U, 0x231bbbdde51df7edU, 0xda2cb4f70edb25U,
  0x12ff00f05190cefU, 0xaaf72fd548eedaf2U, 0xe915092beb2233f6U, 0x150d17dff4d82f23U,
  0x1d14e52a1b26ec03U, 0xc7ce01f4210921fdU, 0x3d131af8eb001b07U, 0xf11d1318130dedfaU,
  0xccd0c71a082c25e3U, 0xb6031bc281ede5e7U, 0x8b05ce0a14ee02f8U, 0x112e0dfc05fef4fcU,
  0xdd16d9e41a151903U, 0x1720f742e9c5c737U, 0xdd30a5ef10b199dbU, 0x9ceff0081088eceeU,
  0xf22b11eb210e0de4U, 0xe71be90d1bc5f6f4U, 0x1c20c814361a9c13U, 0xcec9201931811416U,
  0xeb10f1fac82145edU, 0x90c01eb27deca04U, 0x81ab3330617f13eU, 0xb6fb022c00142015U,
  0x5435db58f329fe1dU, 0x92becd4e5d01181U, 0xc8dfd121ce052850U, 0x4c01ffada42fb137U,
  0xe530f3f2eae61d42U, 0x9d1142b8130327dcU, 0xb70591104fec1914U, 0x40fd1cccb933ce02U,
  0xf547ffb0ec0a8bffU, 0xcaf918ddc9972ec5U, 0x7acdf52ab00c181dU, 0xf4e84b09f501e23eU,
  0x38d8011d2e2d1e50U, 0xe310caa11a2faf4bU, 0x3e7d8f62fe0e4efU, 0xcc16b2dde5e3df3eU,
  0x3d13b64f3ad72000U, 0x1d1612811b0ea339U, 0x2d4228cfe00a06cdU, 0xbc054b3ab40e1af1U,
  0xb20dcf0c24c3021dU, 0x434df3ddd9c5385dU, 0x38b873ecdfe20cb4U, 0xbf27caf0e5503ccbU,
  0x4b08b2155500cdc4U, 0xc33505c9cb280358U, 0xcd91307e05ac304U, 0xe43b33e308ea57c6U,
  0x26180a211449beb1U, 0x81f1f2fc42c931f9U, 0x1ded1cd4a34cc5b4U, 0x29d1c30425ebdcffU,
  0x14d01531095a011fU, 0xeadeddfa13f9b013U, 0xe42003db3eddf7e7U, 0x253f13e70dfae2e4U,
  0xc2da2300fad8d3f7U, 0x4f241cde4f20bd8U, 0xf80d2ae5e914de45U, 0xaf9e80c1ccd0603U,
  0xf8ffd38101e7cdfcU, 0x2d09fa000b45c721U, 0xc5f7310739f4fe0bU, 0x1b00ffdeb31302feU,
  0x3825c0b8ecd8dbdeU, 0x42160be21ce5b60aU, 0xd406ee22f8e2cfdcU, 0xa7a6ebf8b9241db4U,
  0x1705fc0302da26f4U, 0xc00cf4fdd9d5feebU, 0x81f9c9efd01f3600U, 0xfcdb33fce2213733U,
  0xcbdab3f2fce9fa2fU, 0xf2c30fb127c4050dU, 0x52b2f5df2d1ae8c6U, 0x2c4ecc90facfd05U,
  0x13d7de9ad5b1060dU, 0x2102f0ff0190de2fU, 0x3af3adc236120016U, 0xe30b0ae4dcbe15f2U,
  0x2df0296c53ef4c9U, 0xc7fb05b8242ac115U, 0x15c0f816fc41f641U, 0x9b03f72524e0263aU,
  0xddf4bfb9fabd96U, 0xc8c5fd20250bdb54U, 0x2dd5383a1d16e22bU, 0xa8dfcffe2302f7f7U,
  0x1e051fa0ddf80a81U, 0xfdf9ee0404b1f0e6U, 0xf62d24152af6f9U, 0xc4c70528ea250103U,
  0xeffef625edcca4feU, 0x606051c0fd2c53cU, 0x370ac610ed192425U, 0xd209f4e92cf7f88fU,
  0x281ef5cae4f1b307U, 0x2c260592102eb846U, 0x121fea1cf4e2c703U, 0xf23115090937fea1U,
  0x4a2b161b1cc1f5e9U, 0x284c1da3a8dec814U, 0xc0502f8f0fcc520U, 0xe1fc16f1deede781U,
  0x12fdb70d17f5f2b8U, 0xc1cfeb9eb12d51cU, 0x381ff02fd2002c5U, 0xdefeead40ae2dda9U,
  0xdf4cbec2702fccfU, 0xfa1dde87f516e51bU, 0xd4bfdbf8e91222faU, 0xda1305cdeafadcd0U,
  0x22e8c2001105e3c2U, 0xa0ad606e316bc0dU, 0xc5afb31814221605U, 0xda1618d8f6d5d5caU,
  0xc7c4104bfdf64808U, 0xfd14d394320488d7U, 0xe30db7c119330325U, 0x31d1acef12e0f9feU,
  0xf4acd1f4ade021e4U, 0x39f911c03041bf1cU, 0xfec7fae43319fbe6U, 0x10fe9edc0c11dc09U,
  0x21b6c71ec3d7f4cfU, 0x31ec21dad709bab8U, 0xd0722c30f2ee2c1U, 0xc5f5810c0905da0bU,
  0xfbb4c846f1fc0dfdU, 0xe5f112d8fdfcbb8eU, 0x171b38be01ed3be2U, 0xe317c531d43af5d3U,
  0x40cdeb47e3ee06d9U, 0xecdd19d7d4bce2ddU, 0xed0aebe806fd29faU, 0xfa2b0400e23de0f9U,
  0xda063ff1ef1c2febU, 0xa4508960a1281b9U, 0xc2dd9becfbd11cbcU, 0xf6035fffd70b0013U,
  0x373c121cb5d936a0U, 0xe3911131be4501dU, 0xaf400ed05663337U, 0xe9deffda49fc24f4U,
  0xdab1ccfaa9e7e31aU, 0x80328c1061f9827U, 0x32f3fb45cf11f220U, 0xe6daeab63d0fec2dU,
  0x34e09e1581bf05dfU, 0xcef1edd402dfcab3U, 0xd6fd10fe0900ea20U, 0x5a320ae0ad5cfe8U,
  0x8d250becc4000dcaU, 0x211cfc0c0b63e4ceU, 0xc3ff31e6f8f4f0f8U, 0x3ec90ea3f4c6e5eaU,
  0x813a02079ec7cdfcU, 0xfc0e1ee9fe21efa7U, 0x33254305113a1ef0U, 0x3aa2dd12f02f2db5U,
  0xafdc42eaf508ee35U, 0xfb252d141d18b133U, 0xb9390f13e7ea26ddU, 0x371c09f748142835U,
  0x30615cdfe2da7e1U, 0x9cfca1434d8e2f1U, 0xbe3ef0828f509d8U, 0x17cd0a24f821edd7U,
  0xc031b19fff4ecefU, 0xd38af9f6c9f2091aU, 0x141bec0f1c2a21f1U, 0x12f11604fe0c16f9U,
  0x16e801140f0debf2U, 0xd881b8fc03f0072bU, 0xf2f7d90813350ce8U, 0x1eeb010811ffe71fU,
  0xceea4309030d3f19U, 0xdeea20f34deef8bfU, 0xfcead5da30cb0032U, 0x20c70af2faf8a529U,
  0xc21bd704e7d92613U, 0xefa90316120c02e3U, 0x12e332e1c6c51fU, 0xdb273ae9f400ca21U,
  0x75fc2f702dddd03U, 0x19ff12ceeff7110aU, 0xb5ead00f0608b518U, 0x81041ed61ee7d3ecU,
  0x238df836e316e802U, 0xfc6448fad939e3b0U, 0xd43dd5a7f6980c32U, 0x33e2f524e60481c9U,
  0xf2f530000d03ea33U, 0xf305471ccfdf1d90U, 0x20c1bb7fbd5ba41U, 0x7d6f5971b56c3d3U,
  0x27c5d412c32fa50aU, 0xbcc333492c0b4cf4U, 0xf8e61be5c9e1ab22U, 0xc4e181820f210f14U,
  0xdeedf2d2d200dfefU, 0xf602eae8d70e9cf9U, 0xe6f7e0f5f40d15bcU, 0x159a0c23ec12ee07U,
  0xdae30985c8edd2f8U, 0xf1deff5e92d95e8U, 0xb18e8c138211ed1U, 0x20e81a19d207e4f6U,
  0xceda2781c2f3dff1U, 0x32feeafcff16e2fcU, 0x1f09f8f03105e8f0U, 0x27c622141522f313U,
  0x396bfcdb0ebe315U, 0xfced8de487f28127U, 0xee0f17f2141a2adbU, 0x10ded5fceea30ecaU,
  0xb49acfc8f5d4e5U, 0x310b6e8bd099704U, 0xc2f10914f11bfde4U, 0x7ef07ebf3840bd2U,
  0x89aacd5d01db6f9U, 0x182bf7fcea2a8f08U, 0xdb01d81317061d11U, 0xf5f1fbd928a7eeceU,
  0xdd001ceeae00f6ddU, 0xf8a5f9d11cfcf525U, 0x27cf18f80a22f25eU, 0xe7ccdffc1302fb34U,
  0x5e4eee0bb37f8f1U, 0xbf0cead10399cc0aU, 0x6e4c1fcecf9133bU, 0xc781f62131f40d18U,
  0x2dffda0102ee12efU, 0xf632e3dee7fbbc1dU, 0xb2e8461f4211d5fcU, 0xb4c12ceae22808d7U,
  0xec1e1cfe04002b2bU, 0xf60d07f41e153addU, 0x39db3ac523e6da20U, 0xd355fb100d91e33aU,
  0xfddee5fb3a082233U, 0x824cce22932cfbdU, 0xe6dee3f315c9ff01U, 0xc53cfe26f1b71dd7U,
  0xe139fa193a02d605U, 0xf608c7d4ed0e379eU, 0xf9e681f00b0ef407U, 0x9d433f390be8d60aU,
  0xe1bf01c30deb1fc3U, 0x1cb924fe1311eed3U, 0x6c5126611f2f7f6U, 0x11ff8126b9049e0aU,
  0x1f15fbf3e90140d0U, 0xffee00d8bc1b09ceU, 0xe3f210fd11b6dfffU, 0x1601dc16d6fed806U,
  0xecc8dd2c02ba3cdeU, 0x15e8bd2b3eed14f7U, 0xc9e830e10514e7ccU, 0xe1ff525fd2a2821U,
  0x34d9b229023d27ceU, 0xfbf62516e6093703U, 0x56d4813bd430fbbeU, 0xfe07e689eeecdef0U,
  0x1000e4f1c51928ffU, 0xe70e2237ec1d07e9U, 0x12072422e81f02b3U, 0xe21908e4f9e4cef1U,
  0xd0e7edb9e340f602U, 0xe00221c041636ffU, 0x116f3e6cccadbd2U, 0xd42cbe1d38f1c7d8U,
  0xf5d910fbde220badU, 0xd10a1a01f1ed03U, 0x13cb0e16e40fec0fU, 0xe6b2ecfc0710080fU,
  0xeeeef3f3081e1cc9U, 0xde503db16e00413U, 0xefb4fd24010de71aU, 0xe0cd011ffc0bfa17U,
  0xc130bf5f3fff281U, 0x1ffdf0f016024225U, 0xe7abde051015e02dU, 0xe9f0fafef9ee17f5U,
  0x8f3b03af1a29f1e6U, 0xe8d126e32944d337U, 0xb0d72718f6fe330cU, 0x121cf5c049f61febU,
  0xfe1a16f119be0a11U, 0xebd6a1cc04089223U, 0x57084508e8f229e4U, 0x1132404643fcfdU,
  0xea060fc108e7df23U, 0x3a1881d91821fbbcU, 0x46c4f6ebf3f0f127U, 0x91c25fe3016b2f9U,
  0x90a6632dc7f1cceU, 0xdd2b1ee8baec3791U, 0xfc03f0b3d81405U, 0xf21b3b10c801d7b5U,
  0xa8103edbd03b0d10U, 0x20a3a07d70221c8U, 0xc606f5e1e2b313d5U, 0x521f207e92fd1f6U,
  0x8e2553c3c71bd2fbU, 0xd5cf41f20d10f4a9U, 0x37fccf1ff3d8f636U, 0xfffaff10d22ab04U,
  0xc1ba3116cfe609f1U, 0xe6e40008f8edefc5U, 0xeb2616dcfdfcf032U, 0x1b10d30313300ffdU,
  0x39f1ae8b5e81e11U, 0xcea5e2160a0d0be5U, 0x1f070ed8c0f40138U, 0x1ecaccf0391ff5f6U,
  0xf49d1301bb12f7fbU, 0xe48199f1fe04e296U, 0xfe28f6faf0d51235U, 0x3f316f21c14cc01U,
  0xf2031ce1efe93cd8U, 0x819ffce3822eb21U, 0xa8de070af9fa81fcU, 0xd21c201b13f6d602U,
  0x15fee8ffe32d07cfU, 0x17261a19e5e1f5f7U, 0x8d4f4f6e202e125U, 0xdd07fe212bdaf8eeU,
  0xf5e7e0f4f5fc20e8U, 0x263113330409fe22U, 0xf0171b13dd1cbb05U, 0xc4e5c9d20c373608U,
  0xc6cc2c0905d2e126U, 0x9301b271a1814ceU, 0xf21901001ef92b0cU, 0xde0dc50712fac61cU,
  0x9d9120d361ee82bU, 0x1e0f19f2eb1400f1U, 0xfcf5c9fa1ffe12efU, 0xdb1ff50ff4efe812U,
  0xc7e6e02d18e9e100U, 0xb11fed06d9c539d8U, 0xdfadc81ce290bdaU, 0xe9ddc6f3ff0c031bU,
  0xe8fad5d5fa4f1b08U, 0x1f19141406f032f7U, 0xf107d4b0cdc6ef02U, 0x10d4d333cad6b0e1U,
  0x960544eace433210U, 0xe90a0b30270d28fcU, 0xf4ff36ed0cac34ebU, 0x2eb2bceb811ea421U,
  0xb3ef62ffdc17f0feU, 0xf10f933feef0de1U, 0x2032d6dcd624241cU, 0x3be80411872d01f9U,
  0xeeade623157507daU, 0xf110c632e8deefe1U, 0x1d0dac2ad4c8f50bU, 0xe94c08eaf63af7c9U,
  0x1dcb2514103deef5U, 0xe11cfd0fee180681U, 0xfb1a190c06d2e300U, 0xbf28a61ff132bc1fU,
  0x288f0a10dee4e9eeU, 0x1fdbd6a81232ef95U, 0x49df000006caf816U, 0xad0fdc1604cdcaecU,
  0xaf1eb12e63612f9U, 0x1dd1e92cca1709fdU, 0xdb1d0411e2db26e9U, 0xeeeb13bacb29e8e5U,
  0x24eaedfddf36311dU, 0xeb8e6f4e91fe1ebU, 0xfa1915223925e7e6U, 0xecf62db614080407U,
  0xdf150ae711fc2cU, 0xaaabfae41824e923U, 0x7f9dd1cceefe9f0U, 0xe5ed1a812aea0b26U,
  0xedf12ceb250e1400U, 0x12cd1c00f91ff509U, 0x1af92ab60cfefca8U, 0x2d1fda81b91af512U,
  0x18c016092efb0d1fU, 0xbd4d80bfaf3d4e4U, 0x534fe08d42222a8U, 0x291c089bce2b0801U,
  0x221817bd08f9f719U, 0xc90bf1c5ef2a31daU, 0xbda1fc69bf30ac1U, 0xf5391d151612281dU,
  0x9f249f0615092e02U, 0xf6cb55e1e233118eU, 0xbbb8a1e21de3c223U, 0x15babf66ded81f6U,
  0x10e5d72cfd0435f0U, 0x491ee3ebe0a128aU, 0x46ef0b7429bfef45U, 0x23191d071503c2e5U,
  0xf22fd92fdd32d12bU, 0xfd8f1acaa3d7bcd1U, 0xef1df30b3346b5bdU, 0x328add5c2171cb2dU,
  0xf1d01606ee302732U, 0xf03a17e6f6cad6d6U, 0xe6158fd207320d6fU, 0x13afefd9d0fdd8c6U,
  0x3ab5151ae5fe2313U, 0xda02d73095c7f81bU, 0x83ecf19ebc8f554U, 0xf8e335dacc0dd1fcU,
  0x120344d702f05fd0U, 0x2302e312d3ca8115U, 0xbe4edb01060dde28U, 0xd1c3cce8cd11b707U,
  0x4afc0d1a29faf5eaU, 0x25c9ba3bf1bf0f0dU, 0xe3f9d8f6122afde9U, 0xa9f42fba03091faeU,
  0x2ded170c00184227U, 0x31f92fcbdb30ae8U, 0xe9f5a403f91f1410U, 0x813628dcd604e0a2U,
  0x1c084fd80138efe0U, 0xfcf2fb1f562c2ae7U, 0x11e1d1e6edfc0e30U, 0xe7fcd2fbfd00bf24U,
  0xb903e3d9f2e91f10U, 0x1ac51517051e3c38U, 0x26b1b6dc274c2120U, 0xd314fd1a3bf6bce8U,
  0xca00d4d0caf7e5faU, 0x1af725deb3f6f617U, 0xc0dca405eb00e5f0U, 0xe20f293b0d10ac35U,
  0x7c09d55413c303fcU, 0x4b3662a6813206d7U, 0x13ef15d0f8f5083aU, 0xe5180b0ee3218a9bU,
  0x22c412f0f6fe0fadU, 0x3100b0d1df40738U, 0xf1ee3137e5dc193eU, 0x1eb90f111132e008U,
  0x111512f5130811a5U, 0x15cdd6e5f6e1d8baU, 0xdcb4fc34120ffc2cU, 0xfc87ca0422f2c6f3U,
  0x12bfec00d0d903b9U, 0xf7bedf2513bada33U, 0xfe16f1f031e602U, 0xf681d50bcd00f120U,
  0x46f4fc29e633b3f5U, 0xedecff20c026d78dU, 0x5e4f91bed9debf2U, 0x9d722c30b4bdac1U,
  0x21fcfe05e436dc07U, 0xc0dda2131814d581U, 0x24db08fa0bd1e3e2U, 0x20f05ca291fa303U,
  0x18c6be15382bca21U, 0xd2dec5de122ac4bdU, 0xfa0d2ff11ad91306U, 0xeafdecf10d04cacbU,
  0x3a00bff8ec403febU, 0xd1f0c3f4ef0ce4e4U, 0xe4db1718d1d619d7U, 0x1ccde92626da1f42U,
  0xdf04cce1c8003ad1U, 0xffb4e8c1384d09c5U, 0xe707410426a100e3U, 0xaad10415c8e91fU,
  0xddbde7f4caf2eeadU, 0xc6ace3f40beccae9U, 0xcedf215fc1116bbU, 0xd981bf1646e0db0bU,
  0xebf5e20d0ef9e4fcU, 0xfe161503e9121a13U, 0x2eaea011ff8190cU, 0xb32ee0d16fbf315U,
  0xea14a90d03030408U, 0x22100303a801e107U, 0xf72807df0ee618baU, 0x40e0ed1bd0922ccU,
  0xdf2c81e20007d206U, 0xe432f803fbf622e3U, 0xe0af3e6030c0ec8U, 0xffe30f20fdfc190bU,
  0xedcdf5fcef090517U, 0xfdeadfddf5ecd80bU, 0xff0ae199a51f16e5U, 0x7f7e3b7009ef302U,
  0x1ee9f817f603f9faU, 0xffcba1319000703U, 0x14f4fce8f116e603U, 0x12ecd4e200b9da07U,
  0x39e7f41b1cfffa1bU, 0xefe58111d5f2f6f7U, 0x242d16fbf328e1ceU, 0x8fff600eebc07f5U,
  0xf6e4ecfa94ebcac0U, 0xfec05e8f313b135U, 0x4acc3a05c63ad0d7U, 0xf0dfdc056b021e23U,
  0xddf9ea02b01a42f3U, 0xf00c52b8083bb01eU, 0xff2ed0d51b2e3953U, 0x23bf9dce3be8e32cU,
  0x5814d0ec2374bedU, 0xbeef15f8dfbc1049U, 0xb615be25fc0a3956U, 0xfacaaf270204473aU,
  0xf0f42c34bec20028U, 0xd84754fb4020a1feU, 0xdf26f9cef0e31cfcU, 0xa79cead7f7880cf4U,
  0x2bf8bb0cdea44525U, 0xe50639f15029b11bU, 0x122c52172aac191dU, 0xed0208d1100103a2U,
  0x7934abef06aa2011U, 0x193331d181e6dd6dU, 0xf80a122deebee1a7U, 0xb1aa2844cb1c3ce9U,
  0xf23218dd0fdb17eaU, 0xaaee40f4139431b9U, 0xd40708b1f4fdff3cU, 0xfbf91c41e749d72aU,
  0xdc09d8e10ac907e4U, 0xb6c1331533bf3727U, 0xe5cbde1804fb0454U, 0xddf0cf1c0637dccbU,
  0xc01b20df50b1d14U, 0xbcb2dc28e1812601U, 0xc06deed0be5fa17U, 0x61ead2dfc2f020dU,
  0x68cffffe4a6U, 0xfffffa90fffffd0bU, 0xc8cfffff931U, 0x4340000027aU,
  0xfffff63f00000724U, 0xfffffe79000004aaU, 0x5ba00000b91U, 0x27d00001384U,
  0xfffffda0fffff5efU, 0xc1300000d36U, 0x129300000510U, 0xdebfffffb6aU,
  0x10e5fffff9c0U, 0xfffff2bcfffffef8U, 0x183affffffe4U, 0x110c000007c3U,
  0x6f3ffffe3b3U, 0xc64fffffba1U, 0xbc700000647U, 0xfffff9f700000d95U,
  0xfffffd80fffff9a0U, 0xfffffcdc000002a4U, 0xfffff8b0ffffeee9U, 0x10fffff8b2U,
  0xfffff675ffffdaa6U, 0x2eb00001108U, 0xfffffe6200000f39U, 0x19600001654U,
  0x15e7000005acU, 0xfffff17200000befU, 0x3cd00000c02U, 0xfffff405ffffec1eU,
  0x3091b010604e004U, 0x101303ffe7d4fe24U, 0x3f611e1fbfef9feU, 0xe1e8dcdeeb001405U,
  0xd7d8e2f923240707U, 0xfbf60206f5f121ffU, 0xe6e7fb1610f0fd04U, 0x7eee8e2fc33f31fU,
  0xebe5f0fbf301f700U, 0xeefcf1e001120cf4U, 0xfce3e9fafdf227deU, 0xeaf9eff0f90f1e35U,
  0x7ebbef70de8160eU, 0x2603f5f101eb200eU, 0x217030910e8e801U, 0xd3c7e4010af0f5f8U,
  0x9f1fd1008072701U, 0xf7f6f304d2dff9feU, 0x37f414e404101502U, 0xd3faf9f50f301013U,
  0xf7000e092203fc0eU, 0x1f16246b14fc0131U, 0xf603ccd432f635f0U, 0xceffa0b28f4eb24U,
  0xff02fdfffbfce511U, 0xd8f4131b131ff202U, 0x403dfecff080ffaU, 0xf40df3d80a0f2106U,
  0xf2e52311081e5b36U, 0x3dcf20ce20f27eeU, 0xf7ebf513f2101503U, 0x15f5f0fb0a16ee01U,
  0xf4f2f1090b060201U, 0x111d10d20affe0f1U, 0xf6f91216f110f107U, 0x40d0402f800efU,
  0xf5f4df05d9f6faf8U, 0x60821fae7f4e208U, 0xebf70afc081f28efU, 0x1d08eb00f5ee0602U,
  0xebf2f70b0ff70d0aU, 0xfdfbee2df509f804U, 0xfffbed25e01d2c0cU, 0xfcf8f0140219efd2U,
  0xf4f8070902f236f4U, 0x210b1a0d040d0e23U, 0xfbff1ed0feff12f6U, 0xf9fefb441618111bU,
  0x3fa08141515e4ffU, 0xfe000fccf0ff0724U, 0x905f3eb1718f106U, 0xfedbd1dffaf3f207U,
  0xf3fe0dfff328fc10U, 0xfce8ff0720f4fefdU, 0x7f9ef1207fafeffU, 0x41cff07f804e903U,
  0xf8f509fd00f40ef9U, 0x3f3fc3705e00e15U, 0xf8e3df11120428fbU, 0xfafbec0010fa1512U,
  0x15fadf0c0bfe1b09U, 0x29ea0803f7010bf0U, 0x1707ede6e20511U, 0xf0ed0efa09fbed06U,
  0xe3edfcf317f7f308U, 0xc04fb02da000ff4U, 0xcf60bf0e4171903U, 0xf4140407180a0016U,
  0xedfa02f10b000214U, 0x1debf30af2ebf600U, 0x10fec6e50b0c1bfaU, 0xd6f5f7faece6e0dfU,
  0xe70a0719f8f621U, 0xf50b1f180605da02U, 0xf9f7f3fb2d0110f3U, 0xdc07f9fb000a1e14U,
  0xedff180312fa3820U, 0xf8fffdfef61017faU, 0x21fc07f5f6021120U, 0x9f4e51402051018U,
  0xe407fd010f0bfd0aU, 0x2f013fa0d0de0e8U, 0xf4050107131e0804U, 0x8fe23f3ea090ffbU,
  0xf605d30401ff05fcU, 0xc021605fc02ea04U, 0x1defffef011a0ff4U, 0xda100d1be8f90721U,
  0xf2f20207150cf7faU, 0xfb0ef101e60c0a04U, 0xf30c05f4f32e170eU, 0xf70110f20808e611U,
  0x6fa04f50f0b27fbU, 0x8ef11f7f4fe01faU, 0xfe0120bf09131009U, 0xf7ef010f0505faffU,
  0xf2100308f70ffa06U, 0x100903bafb0e0119U, 0xf8f8ecfdf31201edU, 0xeee7c801dc1bfeffU,
  0x7f605f7fe1b0904U, 0x4f805061813020bU, 0x19dacefb0e13fd04U, 0x4fdf3e3f6140802U,
  0xbea03f60f080c1bU, 0x10ed0acb12c70c04U, 0xfcf80803f10609eeU, 0x2e427e727f60609U,
  0xfc20f9000dff0f08U, 0xdfd100003f0f400U, 0xf810f4e2f9f20502U, 0xf1e518fb15fced25U,
  0xf7030ced0dfcf503U, 0xf7ffebf80904fa0cU, 0x2f404f60a091c00U, 0x205eceefe08f902U,
  0xfe06f4ed1400f706U, 0xe020f90702e01119U, 0xf610d0ea13ebe9f0U, 0xedf9fe090ac3fe07U,
  0x9d90d0c0bf6ebe6U, 0x1b05141cf005ea09U, 0xf8fdd8f510edecf2U, 0xd8def8e50004fff8U,
  0xdf0b0ff5f5113e13U, 0xf3e5fbf0f30913fcU, 0xf6040c000610faf1U, 0x61a0233fbf5e202U,
  0xdaf7f90fe1e914f9U, 0x11e3190f03f5cdf0U, 0xf30810fafb21ff05U, 0xeaf61fe7fee305f4U,
  0xdfff804eefe00f6U, 0xf51c0e0108060704U, 0xfa04f9eaff0613U, 0xed09e9f70af7eaf2U,
  0x8f4ff0d04f20f0cU, 0x3fffff7f6fc0c11U, 0xf50efaee030014f4U, 0xea01111a1d0004f3U,
  0xf33bfcee091f0be0U, 0x8f208f6f70c0723U, 0xfd0b20e90d05f112U, 0xf9f5fc110b17ff14U,
  0xeb0b020b080ceef5U, 0xe4ef08ee0a10f916U, 0xf1fde0f60a0ee6f9U, 0xe0fbdcf91df9f700U,
  0xfceefbfa0e1a0403U, 0xa12f8e9180ff8fdU, 0x103cf0b13140817U, 0x204f9f803fb0000U,
  0x1f2f8101b031524U, 0x7f309b0ebe5fd1aU, 0xfcf9f1fe22e80515U, 0xf801f802001600ffU,
  0x190d060405f4f402U, 0x6d31cfa03fe02faU, 0x30ae8e901ecf6f9U, 0xed02e40d0a0ff909U,
  0xfdfa14da01f204feU, 0xb02fff00606ebf0U, 0xf0fadbf3fcfffb08U, 0x101905fe11fa0804U,
  0x7f2f004fefff516U, 0xe3f5ce03e3b61116U, 0x1b11ce0109091f1dU, 0x201f20afdc9f0e4U,
  0x1ae2020a0f02e6f5U, 0x50e0ef8ee07f103U, 0x2f3e3ffe7e7ef04U, 0xd2201b0e05f60cf2U,
  0xe508e908fde82cf7U, 0xf609f9f80200f6efU, 0xf401e1070705d8f5U, 0xe514f3fe190bf900U,
  0xfdf1f0ec13040ee8U, 0xe01411f8130fe5fcU, 0xe4f7fe0e1b08f00bU, 0xf4f31bf3e2f5f1ffU,
  0xf3ede60ced0f23f6U, 0xf2e4010f0800080fU, 0xfbdce2f8f50524eeU, 0xf409eb12f9e6f822U,
  0x9d80a150e0a0b10U, 0xf70ad6f1e802e80bU, 0x7fef9e019fc2407U, 0xf0e13efe80dff16U,
  0xe3eef307f0f7fefcU, 0xbf90cead9f0152bU, 0xf30809e00f1afb16U, 0x2000304f11e133bU,
  0xe2fd0509f7f616feU, 0xf909e21bf406f40fU, 0xecf3e6ee21fff8f3U, 0xfc14d1f6df090dfbU,
  0xf90bfbffff0107f8U, 0x2b06f6fe060808ddU, 0xeef306fdea0d0806U, 0xfa0805f51909ef00U,
  0xfff5ff1c09191506U, 0xf3f506ee28ea09f2U, 0xd4f90908f90b03U, 0xfceffb0a17200af9U,
  0x3df08fc020812efU, 0xeef7f6f40209fb0bU, 0x3f6effcd21414faU, 0xf3001fe8fa001000U,
  0x4070fda02efe5fbU, 0x4f6faf0f110faf6U, 0xf30ceb081607f2f8U, 0xdf106f9fcf6f102U,
  0xfa0dfaee0116000bU, 0xfef90b0205e20e08U, 0xfa06ee08e518fbfcU, 0x508f00bfcf1f008U,
  0xec30709150f0400U, 0xf8f4df05f1080806U, 0xfef708f60e0504eeU, 0xd3f9dc070af4ebc9U,
  0xdd0bc408f5f614eaU, 0xfeeb00f50c0b18bfU, 0x6fefbff0803d0efU, 0xe60f0801e8ff1217U,
  0xfff0f4dd1d0fe71eU, 0x14e80c00fafff80aU, 0xfb08f2faf508e604U, 0x9ff0ef8f9fbfdedU,
  0x304e21bec050cffU, 0x8fa27100211fd04U, 0x9e4fa08f50910e8U, 0xbf070e130e07060dU,
  0x1120f0e4ef03fcf7U, 0xfdfb0b07111717U, 0x1516040a040f29edU, 0xffe107111df5fbf4U,
  0xef04dc0f050903ebU, 0x1af704fe0b0700f3U, 0xe9fc0b18f31f00f8U, 0xfb04faffff14fd08U,
  0xf0faeafa03e7f8f9U, 0xf5f2ff061ff924U, 0xf40cfff7090df9e3U, 0xe905ccf4ee101b15U,
  0x16e91cfde2e7fefcU, 0x6ef06f0010d09f8U, 0x100bdf0becef1612U, 0x2fc070af1f60802U,
  0xfaf30515f9031012U, 0x19f2f5fd13e3f6feU, 0xcefe8edf30f0c16U, 0xf3fefbf6e812f814U,
  0x17310cf80324fee9U, 0xff0a0a08ddf008f8U, 0xe9f910f00ef7fbU, 0xd5041df204031808U,
  0x12022108f1f9fdf9U, 0x30af80008f8eb00U, 0xd0ae7f8f8f1fcecU, 0xfd05e7f5f3fdfdffU,
  0xfaf202f3ee101904U, 0xe9f810f7f7f0030cU, 0xdaffea2c0f1bf3deU, 0x1f008f2e40defU,
  0xbd1e810e407e004U, 0x3602eb1aeaf406f8U, 0xff9f40af504f10bU, 0xebf923ef0df41ef4U,
  0xf107e80ee7dd1104U, 0xff1cfaf5faf107c2U, 0x1ae2fff8fe030cf8U, 0xd0f30ff8e92210feU,
  0xeef9fc08fd09f4fbU, 0xf5ed0e000204050cU, 0xffff6f40d09f801U, 0xeb0b07f90b050400U,
  0x1714fa09e3fff9f8U, 0x17fee2100f0b1c04U, 0x14faf3fffbfb0cffU, 0xeef9fdf7061101f8U,
  0xf2f30e18e504f305U, 0x300e4e40ef803f4U, 0x190d00f907f60506U, 0x1bfdfcd91006ee15U,
  0xe403e61403e90e13U, 0xfbf4e407060b0e0dU, 0xf9f5010310fcfeecU, 0x604f2210704f61aU,
  0x41dfc06f9d3f1ecU, 0xef12ecf6fef7f117U, 0xf7f300fd1b0f06d3U, 0x27fcb5f0f80b2ee6U,
  0x1df5150ae122fb0bU, 0xff7f2f1ed040cf3U, 0x1d0f1302f102030fU, 0xd00e9eff6070500U,
  0xf700ffee0a000b1fU, 0x91116c5dd0801deU, 0x3306ee08f3e7f936U, 0xf201607bc18fafcU,
  0x625f7e8fc0c0e0eU, 0xf204fff5fff9ff02U, 0xed01fd11edf8f30aU, 0xe818f40600ea12ffU,
  0x3ee03f4f2f4f809U, 0xf513f206f0f907f0U, 0xd50a1505e8fdfcfaU, 0x3d6dffc0af8f618U,
  0xbeefb01e914f8f5U, 0xf1faffe5e5eaf61fU, 0x801fb1300021bd2U, 0xff0de010fdf7edd3U,
  0x3e6d00e07faf500U, 0x603ef13f9e701f1U, 0x1106f10a14eb0901U, 0xef1233e506062ef9U,
  0xe0ebe7eafafbf803U, 0xeae9e5fef01120ceU, 0x23ed02e500f9f412U, 0xed010df0fc080700U,
  0xd0fa09120904f713U, 0x9c00502ebfe000bU, 0x2708e907f20afc0aU, 0x7041df11911f4ebU,
  0x19f31cfbd003fbf7U, 0x100702fc181ee801U, 0xf4f0f6e4e9eaf5d8U, 0xe4fe03faf6ea0602U,
  0x1c080be5ea0bef05U, 0xd050af3e4e00d0cU, 0x21fe0110f0f3f413U, 0xf7d7f4dd0afef40bU,
  0xef0601daf2060a07U, 0xfe0be115011ff9e2U, 0x2fce2fb0d07f415U, 0xf6f2e7eedff2f906U,
  0xcb10eef2e7d8eff7U, 0xb0614c51f11f115U, 0xfee90416f401f7d6U, 0xfa1490fedb14f4e4U,
  0x31040d07df0a15f6U, 0xf8d8f10ff70814ffU, 0xf0120d0ceceaf11fU, 0xfae5f92203f1ff09U,
  0xf9eb000607f1c822U, 0xf90610e4e81603f2U, 0xf5f2e9ff1e06f328U, 0x1133140f2d2b03f2U,
  0xdc0801fa0222f609U, 0xf90bfa101a0e01faU, 0xe90b08080b07ec06U, 0xf2fe18deebff1a02U,
  0xdf517e9f7fc000eU, 0xfdfbfdf6070300f4U, 0xc30beff21000f307U, 0xfadff5f908fdf919U,
  0xcf028fae50cedf2U, 0x21f8d1ee1a070121U, 0xe4f31018fe1206d4U, 0xf012fefd10fee4bbU,
  0x17d3fc102111f8f0U, 0x1ef51415f3f80d0fU, 0x8f5de1a26ee05faU, 0xf90814d802fe0af3U,
  0xe0f6f205fcfb1901U, 0xf316d9fde6021eebU, 0x2b0bfee0fb0100feU, 0x10815fd01eef609U,
  0xedfc08fde80a0be6U, 0x7bbfb0902f0ff0eU, 0x1418061014efedf9U, 0xfe0814e7edeaf4f3U,
  0xfff6020bf20600f6U, 0xef00d017112001ffU, 0x11f006eff5ef23fdU, 0x70af3e00cf618ecU,
  0x3180d0bda060bf5U, 0xc170305dc0807ffU, 0x6f2f521ff2e0407U, 0x3f4e4e6f808f5f0U,
  0xf3080bf7151d04f9U, 0xfd12f20920160611U, 0x100aec27fef6000aU, 0xdff9f11ae1fe1f26U,
  0xecf20ffbf9deede7U, 0xd05f2c3000df841U, 0xfa010b0e130106dcU, 0xe0c18114cbe500f7U,
  0xb14f0ce171028faU, 0xecf8000ceced0a1dU, 0xdfdfc025e9fdef05U, 0x9f1f918fe1223faU,
  0xfafb01fdeee9b40bU, 0x1fed1ae6dc100bfaU, 0x914de05f4070d26U, 0x2408f505e10ceff3U,
  0xef02df06eaed0209U, 0xe31a0416ea1322f6U, 0xf215041ef5efe50dU, 0xe2e4e9f91ae8dafeU,
  0xebe534cef308ef07U, 0xf805f8f619e9f1fcU, 0x1d05e9f3f409f1e5U, 0x14f400fdfa040820U,
  0x3e212fbd61ffffcU, 0xfa0ce40ee2f3dd20U, 0x15e20b2d050300f0U, 0xc0e09f5ff16f1c5U,
  0x5af150efbf30209U, 0xfc100012070cf8fdU, 0x4e40a0b24c7020eU, 0xe5c61d0cfb1601efU,
  0xdde8e1110b141aebU, 0xffe7cae9f60d18fdU, 0x2515e0e9f2000d23U, 0xf70520e2e9e5152aU,
  0xecfeffc0f709f715U, 0x3db1b11ea0a0e09U, 0x211f3271101dc0cU, 0xe41106e7f2fb0002U,
  0xfafe230eebf91d0fU, 0xafcf1121b0cd409U, 0xf8ec00f8fcef10eeU, 0x85d20608fe2ceff5U,
  0x2ed0b1df724fb04U, 0xf6160700e90f03efU, 0xf0fa0307d9f93b20U, 0xf201f20a1a0df1ffU,
  0xe5f8020e16021131U, 0x4090c0817d7fd01U, 0x1becfae9061bf01aU, 0xe1000901feee2515U,
  0xf2d112fe1e15e6deU, 0x9eb0e0de4f3f505U, 0xf3e8f9240e04051dU, 0xe2d1e3f0f4ff2e16U,
  0x2b11e01e10ffe9e5U, 0x5fa09feeb09f109U, 0xf714e4380dd2f820U, 0x122e51eff20eb02U,
  0x19041b0c020ae7efU, 0x603172210130c3dU, 0xfd06ffe30215030bU, 0x11ef27c5eee905f3U,
  0xf3bee010d9cefc11U, 0x820121f11f7f912U, 0xfec13090a05fdc6U, 0xecd6fbeeede2fafeU,
  0xfa08260df1e10adeU, 0xefb050205fb010bU, 0x28fb061618d80c0bU, 0xf1331af7f41dff10U,
  0xfc360d12e025e4f5U, 0xefe0f401071ce42eU, 0x14f10bce12e10c00U, 0x22fb1132fb0219dcU,
  0x2415f41c04cd0d02U, 0xa021902e019ff1fU, 0xff090608d010ecf3U, 0xd51326f0d5d619f0U,
  0xb0e112b041f29ecU, 0xc1847171109f914U, 0xd0072a0e02d6eeeaU, 0x40df4f91d22130dU,
  0xef202312141406f7U, 0xfbf50f07d9f710e5U, 0x704ecfeecfaff08U, 0xfb2002fede17dcfdU,
  0x16152804f119d5caU, 0xfafdf3fa0bf4091dU, 0x1dfbecfeeb19e0d2U, 0x91b22f6e3fedff8U,
  0xfbfff3f528f81508U, 0xbf8ddf316d225U, 0x17133b1cd8e904e5U, 0x50de0f5151b0ff1U,
  0xf110f00ff9edec02U, 0x9effe23160913deU, 0xf6f723e800d0110eU, 0x6f4180cecfc05edU,
  0x19f208fe26ef01efU, 0xe8ee170e0ef0150aU, 0xe04061f010e0ef4U, 0x230eeb0afe180ff7U,
  0x10160a0725eddcfbU, 0xfe18ec07c6fe0a11U, 0xfbf800fc12e40827U, 0x102f70af703f6ebU,
  0x14f0f2f8f504d6edU, 0xc0f1afd24ea0225U, 0x231113020cf702fbU, 0x290211de01f40814U,
  0xd6cfdc02e5ff060aU, 0xc0213030303c9f9U, 0xe8f804fa26fafcd5U, 0xb9f90df104fa1aeaU,
  0x29f3f6f9d0d715f9U, 0x10de00090eebefffU, 0x22ee10260be71b11U, 0x81efd09e910f30dU,
  0xf410020cf614d7f7U, 0xf406e8e62102f8ffU, 0xfb0804f7f5170df0U, 0x1daf5260f041cf7U,
  0x1a01070324d80bfbU, 0x9fc0205f6041324U, 0x90709faeffeebfbU, 0xfcf916f2d1f312faU,
  0xef6242106fa1df5U, 0x23063de8f6f100fcU, 0xe427320af7cff8d9U, 0x1decf9100b1a2711U,
  0xf50f0e0015f5190cU, 0x1ee1c11eae22cddU, 0xf604f70cfa061213U, 0xf615f6fdec18f1faU,
  0xf800fb10d911e6dcU, 0xff0b1506fb0c1e1dU, 0xf5f70607cffa01eaU, 0x201901f1040907f8U,
  0x315fc12f8f70604U, 0xf80909040612f134U, 0x507f907d31115f2U, 0xe70b11051010e319U,
  0xf314f520d8caf3fbU, 0xbfcee07150014e3U, 0x12fc2a12fdda060aU, 0x14fc150406f10727U,
  0xe8f2f8f706d0fcf3U, 0xdf7000aedf4000dU, 0xec0500fa2502fee9U, 0xcf6fc1e0b0e0403U,
  0x2afb00fb0208d8feU, 0xf40001070a120705U, 0xeafefa0005f3fb18U, 0xe07f809f21101f7U,
  0xf4d7060325e201U, 0xd703f30717e1f521U, 0xfe1114faf41af5f8U, 0x40101cc050b0a0eU,
  0xffdcfc0bfb150316U, 0x500fff6ebe8bf15U, 0xf6e9fd0c17f3fe03U, 0xf90611f801e311fdU,
  0xff0108f8e4d5030cU, 0x15edf41ffe05f0f7U, 0xc0b0800160e0a2bU, 0xf71a0d0507f80bfaU,
  0xf0ff0dffed18f3f9U, 0xf2f4f111ffffd818U, 0x6f80bea1eed0113U, 0xe8e82f0d0bf4d9U,
  0xf9fbe9f516d6fae3U, 0xf4f4f90dcc15faffU, 0xf30704e6f4fc0211U, 0xf5f9fef9f6f6f8e9U,
  0xf41b181bf4061cefU, 0x11fa34e1d80e1105U, 0xec040ef8f9dafde5U, 0xf20ae21b0f0d08dcU,
  0xf9f7e1e70c0b0811U, 0x1f21013dcea18f2U, 0x711faf8f107170dU, 0xe0beffe061eff0bU,
  0xf7fae70cce0cdbf4U, 0x12042304ffe11f10U, 0x4f83ceff1f41af0U, 0x1008fdf8f91d01e6U,
  0xf4fe031b1df901ebU, 0xfe0214f1eef81e2bU, 0x1001eeeddb290cecU, 0x11141b22fffafd04U,
  0xaeeee14f2f0fb09U, 0xb1b020d260208e4U, 0x403220a0af2f71cU, 0x20f3fa090bf9012aU,
  0xd0308031ff106e7U, 0xfc09fc0d0cf6fe00U, 0x1d01f502fd0f20ddU, 0x603ea1800fb03f9U,
  0x2012fb092edfe3f9U, 0xebe8dd00fcf40e09U, 0x70dde14effa03ffU, 0xb060c020a14d30dU,
  0x417d909031df704U, 0xea1fed111f07f61bU, 0x26f5160dfe1a0007U, 0x13fffbec2ced0f1eU,
  0x3d6f8210804010eU, 0x41005f9f5ca04U, 0xd8dd090009db0b01U, 0x19fd08fa1a03e602U,
  0xe8fa15f8f6f1160fU, 0x8f1f20c14ef0c14U, 0xe2e6f60302f5fc0cU, 0xf60c1c03def10dfaU,
  0xfbf419020121f8f3U, 0xf1e4ee14f404e815U, 0x32406f6f0e011fdU, 0xe4d3201ef738eeebU,
  0x7f70a0518df01f4U, 0xf803fc0ce60d0614U, 0x700fbfbf808fffdU, 0xf0f817f3cef706e8U,
  0x4ecf50704f50cdcU, 0x3f42fd0d00cf2f5U, 0xf5fa1516eadbf8feU, 0x21a04f9fe0a0806U,
  0xfcfefdf203180a0dU, 0xfc061316fcfa16f9U, 0x10f5fefd0c0f020cU, 0xfc1ae603e8eb03f2U,
  0x90f1902ea02f500U, 0x12070007191600U, 0xfc0d1afcfe0ff3fbU, 0x70af5f9ed17f8e5U,
  0x5041f11f9ecff14U, 0x1904f900fce1131aU, 0x7ed0e12041c1823U, 0xfc0ef40ffd06fb1eU,
  0xf5ebe222f2fef6ffU, 0xf7060e2511f40bd9U, 0xa0d0a01f2070e33U, 0xd0fef1908100213U,
  0xefd1ce804f704ffU, 0xf90b0d071001fd0cU, 0x3f013fd0c050701U, 0x1cf0f1f230330ff5U,
  0x1fef506d6ebdaf2U, 0xaf4f8ee03091006U, 0xfaf9f5e8fcec070aU, 0x207f1110d1efbfeU,
  0x1502f0020126ed16U, 0xe622eaf5081408e8U, 0xfff40b05fd1509fcU, 0x710fec2f7041c18U,
  0xfadae71405ff1c0dU, 0xf912f80a07edfd09U, 0xf0f0fa06f3f9f0feU, 0xf5ef030bfde3e903U,
  0x100eea08e0f1eb0dU, 0xcf5e4fe1603f705U, 0xecfe11030fe0190cU, 0xe60c1c0bd9fa05fcU,
  0x2fb0a08030a1009U, 0xf9f1f51121000b17U, 0xef0aecfe0df109U, 0xf719050af41e0de0U,
  0x911210515e319feU, 0x2fef20ef31a1efaU, 0xf806fdfbee03e000U, 0xfdff2ff4f111f1f8U,
  0x1edf6fe000212c7U, 0xfff915bdee18f1fdU, 0xdef80811dbeafaf0U, 0xf607012beefffe06U,
  0x1fe1111e2140b02U, 0xf9f0091222fc1301U, 0xea020bfcf1fc060fU, 0xf2faecdeebfe00fdU,
  0xe108ec00daf8d9fdU, 0x9070cfcf618e1f6U, 0xee0ef6f5fe04ef00U, 0xf9ff24fb0d12ecU,
  0xe6fc09020b040f03U, 0x1414071c00f606e6U, 0xfb2c16d7ec331025U, 0xfc02ec23ec110eddU,
  0x11408ed16e2d51dU, 0x6050d1607000601U, 0x5fd06150af8f71dU, 0x1df9f421f3170c07U,
  0x90a1df309f3fedaU, 0x30a12110bfe0300U, 0x6e505fa1f120e10U, 0xf60ae80a01141701U,
  0xf803fdffdef9f308U, 0xdfdc001ae1e80607U, 0x606f0f10fe10af7U, 0xf802f90a0018e206U,
  0xf1faddf205110b07U, 0xf619f71e0010eff6U, 0xe311020eed1d1511U, 0x1902f72c15fd190fU,
  0x1fcf4120cfe01fbU, 0xdbf202f60c2af7fdU, 0xf1030a09dffefdf0U, 0x1df7fd0723fbe116U,
  0xedf8fffe1efc0501U, 0xfefff2f901fc0e0aU, 0xe7f7170f0ce00c0fU, 0xfd1b19f2f7e9100aU,
  0x1f4f613060bffecU, 0xf2dcfd0ae800d424U, 0xefd1ee30ef5e6fdU, 0x10fdf5ddf91714fdU,
  0xe707121208d21111U, 0x60def10d30a02dfU, 0xdafd0efa0701ffeeU, 0xf1f6fffbf8031a07U,
  0x2fed806eff508ddU, 0xeeed2fe8f00ed717U, 0xf405e7fceae5240bU, 0xff13fb10e30dfceeU,
  0x305fd0601100d03U, 0x16020ff6d90303fcU, 0xf20002e81408f70aU, 0x107ebf900f90b04U,
  0xfa06f608f70501efU, 0x210fb05e6f81dfaU, 0xfe02fff201fc0204U, 0x181809f1f90f0ffdU,
  0xfdfcff191b0ffecbU, 0x2022f8ffd7f80e13U, 0x809192ef61cfef6U, 0x1c11e826f0030a12U,
  0xedee0e140ceeab07U, 0xb03fb210004fe28U, 0x12eb0dee05111544U, 0x91af019e4eeeeebU,
  0xd0919f613f804e2U, 0xf6060917fff200ffU, 0xbf9f9fa0f0b0515U, 0xe30cf403182026e1U,
  0xed0efe06bef8ef05U, 0xefeb0ef7f70b0005U, 0x10b08190ae80605U, 0x207ff11f91d0f28U,
  0xf90e16110b26e8fdU, 0xdc02f5ff092300ceU, 0x13060714fc0e1b13U, 0xfef1f41547fb070fU,
  0xeffa0a3604071afdU, 0x1300eaf00cfd1818U, 0xfbeaf710120cff09U, 0xfc0914fd17fff8fcU,
  0xf2fdfd0ad3081a01U, 0xfffafdf506f3e01aU, 0xd917000213f8ec16U, 0x9060cf6fdfa0102U,
  0xb090507f5f617feU, 0xf8d8faf41023ed25U, 0x1c2016ed08d5f5a1U, 0xfbcf08e3f4120cf5U,
  0x2efa1d0ff6001d08U, 0xee11f3020d02fdf4U, 0x7f10905e309ee12U, 0xfa0af803fc0737fcU,
  0xfafccde20d0dfc09U, 0x20334fff300d1f4U, 0xf508eb0ffae804f2U, 0x904171aec07fc03U,
  0xef080008ebf411f4U, 0xf5ff220803f902f1U, 0xfafd06f5f60a0a09U, 0x71dfdf9f50c0f12U,
  0xef03000ae20d0bfdU, 0x1622f9eef105e9feU, 0x118f6f21aff00f7U, 0xcaf814060f12fbe7U,
  0x509f106eff60b01U, 0xe30df6fee70705ebU, 0x111e11130a0de319U, 0x14f6f615131e0e07U,
  0xef03040effccc90cU, 0xd06062eef17f512U, 0x1602ff0c181d1034U, 0xfe13fb260dfdeee8U,
  0xee13f9eaf7fc09eeU, 0x1a1d0010fc020001U, 0xcfde50e180af90fU, 0xdcf20fe72dff19f0U,
  0x4fef908d7deee06U, 0xee0b0df5f018fe08U, 0x9f8fb1a1f0002efU, 0xf0803fdfa0d011fU,
  0xd180619fa24eeeeU, 0xfd0de5f7db04fde4U, 0x1f13fa0f1b12000cU, 0x6fbf9fc1a000512U,
  0x121d0b1b11130ff5U, 0x2afaf2f515fe0a03U, 0xfe0c03ffcf02e602U, 0x200c270614f6f10dU,
  0xfcf5f90d290a1f04U, 0xf7f827fbff02f109U, 0xe006fb001d00f311U, 0xfc140709f3e705fbU,
  0x6f0040908f91506U, 0x3ec02f30309ef32U, 0xf42c0ef0fceef4b3U, 0xff2010efedd110aU,
  0x1706f4061beb11fbU, 0xb00eaf8ef0aeafcU, 0x80e05010013fb2aU, 0xf40d2afefd0007f8U,
  0x305e7cb07091205U, 0xf9ff34ed16fdfae3U, 0x102e6e4fcf3fec3U, 0x7090a34f601f6e7U,
  0x10df7fa130c041fU, 0xfaf22aee020700f6U, 0xf400fd03020012fcU, 0x13fd03011d141b19U,
  0x51632fe031400f6U, 0x41e09e5f8f91af9U, 0x610fdf1fffe19fdU, 0xfe01040b10f60ccfU,
  0x619fcf9fbfa01fcU, 0xf4fd13dffb1105f4U, 0x132b34f71ee9ea0cU, 0xe506ec05fb1a0cfbU,
  0xf2f6f6fd12dcd800U, 0x7f91026f71aeb26U, 0xea17f91607d30c2aU, 0xbf10915020710e1U,
  0xf00507da02f4f2b0U, 0xfe16e42bf9e501f4U, 0x9cff8201308e712U, 0x812f4fd0cd11f06U,
  0x111800fe101d1111U, 0x25152a05f91fe8f6U, 0xffeae0051509070eU, 0xd1e18f7f30ad709U,
  0xf0407e406252cdcU, 0xe524fc08f80ce9d8U, 0x2303120cfb131922U, 0xe504110d2900111fU,
  0xc15180ffb2503f6U, 0x40b10ec11d1fe07U, 0x11de0104f41aed15U, 0x231203f22706e013U,
  0x2141a041e06f8f5U, 0xf5dc01fedb0c2223U, 0xd80006fe32f10903U, 0x410fc08e6000611U,
  0xe7fc0c0214080305U, 0x1f9fbfeddf1db46U, 0xe2de51deaf6b5U, 0x7f4f0140de02805U,
  0x24f0010ee8d40306U, 0x1213fbf3fafbf103U, 0xfd01e3e4420be417U, 0xf7152ce7f60705c9U,
  0x140fe1e9fc171cfbU, 0x7fc57f7f8080b13U, 0x2f5eb19ecf505f5U, 0x1cf8fd28e0fcee16U,
  0xec061f15090d0d02U, 0x1cf52ceccc0a1705U, 0x10fbf216e70d06f5U, 0x260eeefd0c191628U,
  0x12f8dff9df2519fdU, 0xff12fdecf6ded4faU, 0x9f2f410f92209U, 0xdf23fc0c00010fdfU,
  0x3f50bee070e0917U, 0xf32cfef3faf00106U, 0x18022024db23111eU, 0x51aea020b00f719U,
  0xe6f1fc0007e8c704U, 0xfef32350f7fae80cU, 0xa11e50f060b124eU, 0xf8fdf128130afdddU,
  0xeadd0a02f2fb12d0U, 0x6030202f3e1fd09U, 0xf2fbef1f18ed0900U, 0xe4eb27f6dd2efe05U,
  0x70105f52736fcf8U, 0xd107faf1f2ffd50bU, 0xf2f40dfcfd2ee6f6U, 0xfffdfefa0cfcdf07U,
  0x2017eee0e000fb09U, 0x913062a08ebcc09U, 0x4fcfc04e7ead3e6U, 0x8061f01e9dff7ffU,
  0x3b9ee1216060ef5U, 0xf8fef9f80d0309f6U, 0x8f31602ff2602dcU, 0xe6dd1aea11f503f9U,
  0xfa0303f3e112eb00U, 0xc0f1df7f80f0121U, 0x1afcf4150620eb05U, 0x4fdfa07fd42e3f9U,
  0xe82e15f7f7080105U, 0x502e62839fa2008U, 0xf40003010c121eebU, 0x18e51a27f20322b5U,
  0x19f706ffde1ff2e9U, 0xfbf5fafacc141f03U, 0x1704d700e505fdf2U, 0xe0121be2f70d25fbU,
  0xfdfd06f5fa1c2f3fU, 0xfd121ff615f9e715U, 0xe210220005f7fc0cU, 0xf9f2fdfc0f1b1d0dU,
  0xec06ef0b07ede71aU, 0x70ff105eaf1f6fcU, 0xfe020401e218e6e7U, 0xccf4dc010c05f606U,
  0xedf8f2fd06eceafcU, 0xfdfff8fe08eaeb05U, 0xeefeffd000beb0eU, 0xfb080109101521U,
  0xf8fcf8f814fce604U, 0xeaec230bfdf9fa17U, 0xe0f90de3f61b04f0U, 0x2f5fafe080ee4e7U,
  0xe925040816d3de19U, 0xbf9f720ff001d13U, 0xf401fa04e0fb23e4U, 0xf21c1812fafff6faU,
  0x1ae0fb1313010bd2U, 0xf50100fa190d02e5U, 0x19040a13f8f908f3U, 0xf0f8fe0af804ee10U,
  0x3fbfe0403d5e7f3U, 0xd405fc04e0f9f903U, 0xae607e6ff0af3e5U, 0xf8f6f603fde2eb07U,
  0x7edb8e3190a15U, 0x30900010bc8e715U, 0x5f6f7080ae8d801U, 0xebf20f130b070b02U,
  0xe9d8f111081a0effU, 0x301f5f20110f2ebU, 0x1108f2fb0e02e2U, 0xffef1cfa16000d04U,
  0xf70100f204f50ef1U, 0xc10ea10f7fff600U, 0xef2150afcfc07f7U, 0xfefdfef90117e3faU,
  0xe1150bfb1510fc04U, 0x13ece606fbf91617U, 0xf5f8fc00ec0ffbfdU, 0xeef303fe010e1504U,
  0x1ff3fd06f6f2080cU, 0xfafafbfdf906060bU, 0x1409fc0deb08ddffU, 0xed0c23fcfc030403U,
  0xf9f802f603f23b26U, 0x1512110c040efd0cU, 0xec1d31f604fa031aU, 0xfcfbf90823fb3206U,
  0xf509f61b0efaf60fU, 0xf3fa1106e31308ffU, 0x7fb00f3ce1dfd00U, 0xc61bf7f3fefef1fbU,
  0xecf8040cf7060b1dU, 0xf900fbfef8f60e0eU, 0x1704f50b0d1fd405U, 0x4070ef715150f1bU,
  0x2f8f6111302eeU, 0xffdf070d130ce700U, 0xeb0d07f1e810fd03U, 0xfeff0300d405e7f5U,
  0x122eeb0dfcbdfde9U, 0x19f3fff7f4ecf726U, 0x60201fee1ff0ad9U, 0xddf4ebecfef90306U,
  0xeae6170702190cddU, 0xf6ff020a1409e2U, 0xeff0903120206ffU, 0xf6140429f80314feU,
  0x50308fc1405eff3U, 0x317fefffff0fffeU, 0xff0107e80a0501f9U, 0xf40102ff11e4fbffU,
  0x905f8e7f30710efU, 0xae6f01a1dc3fcfaU, 0x1f80803eaf1d2f4U, 0xdf501edf4130100U,
  0xf9fde6090ff00104U, 0xfbf6fefdf805f7f6U, 0xeffb10fd1505eee4U, 0x1aea0101f9fde216U,
  0xfe0501fdf3fbfa0bU, 0x1a0cdd27e500f0fbU, 0x1e0e0c1d02f912ffU, 0xf7fa0004ef0d18edU,
  0xf507f904fbfcf5fdU, 0x1faf61c0005fd14U, 0xfe03f5fbf62000ffU, 0xfd0bfffde4f81ae3U,
  0xf50beffbeced1101U, 0xfe070503ec020d06U, 0xfee2f104eb07f00fU, 0x4fb0a0df2010e02U,
  0xf6fc02ff1001523aU, 0xfc05fc0f03fc1402U, 0xd7fe0ee317fee206U, 0x3f3f8001d0b09f0U,
  0x4fcec07fefaf627U, 0x15f2030914ea0312U, 0xfdff08f5f1210e10U, 0xf9fcf2fe1018fbedU,
  0xf7f2dd1d00eefc04U, 0xf7fbfdfaf9de1306U, 0xbfafffb081701fdU, 0x13eaff0a16e5fef9U,
  0x7fd030018fe08f2U, 0x20ce2f1f8ff1227U, 0xb1af9dafbef13f9U, 0xfafe090106fbf709U,
  0x1e12040df9f0fe0cU, 0x141b0c0fe9fafeecU, 0xfcf8070203fef9f6U, 0xec13fb0cffe80df0U,
  0xd0109010c12f61eU, 0xf8fff906f50708d4U, 0xcf9eb0ff2f617f5U, 0xfade0304f10a0d06U,
  0x6fb04fff8f5f307U, 0xf11b1304f8f5f819U, 0xfd19f4f21612fbf9U, 0xf500f40112f5fbf2U,
  0x130af9f7f6f302f6U, 0xfdf9eb0eebee0bebU, 0x8f702fef6d4e4f5U, 0xf2fb0f051af8f9fdU,
  0xe7f714e6070c08U, 0xfdfaf500f5ff02f7U, 0xf00f080df6070fe5U, 0x1505df010f07dd00U,
  0xf3f8f9fdffebf71aU, 0x1903f309f102fc0aU, 0xfadbeef8fdf71a18U, 0x50103fcf1040b07U,
  0x19f501151019ee01U, 0xe4fdea07f9d90d10U, 0xf7fb00fa0a0012fdU, 0xf5da20ff14f5faf1U,
  0xe500fd11d70c011dU, 0x4f9f404e311091aU, 0x8f6040ee501fffdU, 0xc0515fdfaf82404U,
  0xf8f8f90315fb171cU, 0xf305300ffe03f1ffU, 0xcfeeffc00fc14U, 0xf9fefaf80f090ef4U,
  0xaefed15f70cef12U, 0x50707f6ef06fdf8U, 0xfbf3fefafd1c10f5U, 0xeb00fffb0a02f9fdU,
  0x4fffa0efc071c0aU, 0x5fe00f90bf519faU, 0xf10b13fef50fe709U, 0x19fcf8fbfc040affU,
  0xf9f9f6fa0ef6fc12U, 0x508e8ea0714121dU, 0xf4f91e0e00f01a0eU, 0x1f9f7fff0fb011fU,
  0xf3fa18f4050be910U, 0xee01f309e0fb0355U, 0xf3f703f604edfd1dU, 0xce0f07491f04f5f1U,
  0xb0014f6fc04fd17U, 0xf8f50402000d00ecU, 0x150ee602070717fbU, 0x1a1809eb040137e9U,
  0xf6fc0103fdf412U, 0xe30429fbfdf60418U, 0x90f19f616fb13edU, 0x2fbff16fff411U,
  0xfd1518fcf4f8ee17U, 0x1112fbe8eee1d2f1U, 0xfbfff7fcf4e4e3e3U, 0x9f8f6faf8eef812U,
  0xf8f9fd030c030913U, 0xfe03fff6ee100a04U, 0xf00811f90d1d08f8U, 0xf407020324ffc8f8U,
  0x8fdf402fe00e906U, 0xfc07f5f60cfbf20cU, 0xf03fe02fcfdff0cU, 0xf6f6fdfbe6f4fdfbU,
  0x10f3f90af92d0417U, 0x11ec0118fcdb0517U, 0xfff9f9fa042810f1U, 0x6f008fa0d01fee2U,
  0xef0c14f5ff001a18U, 0xf1fff800000e0cf2U, 0xf6021816f7ffdf00U, 0x16eff30c0bf621f5U,
  0xf303fb05110c05f9U, 0xf8fd13fc0401fe02U, 0xeaf6fa0900db041aU, 0x2f7fbfbe5f51b07U,
  0xfe9f409f70e0308U, 0xff0409060007f3e7U, 0x1f5fa040c1d0803U, 0xecfdf3f9110c0f01U,
  0xfdfe0417e117f8f3U, 0xfc04f9f8cc0b06f0U, 0xd808e00af80803fdU, 0x23e10703ea021126U,
  0xf5f2f7fa0705f213U, 0xbfeff0ae6fe0518U, 0x102e18fdf51817f0U, 0x3fdf7febdedf408U,
  0xf52a0febfcd7e231U, 0xfa0ef604fbfe0304U, 0xf5f9f306ef050ff5U, 0xf2060006ee161108U,
  0xd13fcf60a010befU, 0xf801050111fe0b0dU, 0xfed02f1fe06160dU, 0x1a0cfe01f4022004U,
  0xfef6fd0124e70302U, 0xb9fd351ff7fdfdf5U, 0xf60f09f4f8f1f801U, 0xf8fd06fbfde9ec0cU,
  0xec0406f808190e13U, 0xf0fff604e5d2df0bU, 0xfb02fb030df9f31dU, 0xede4ef150200ff01U,
  0xfcedf302f8eff906U, 0xf6fb03ff06f5070aU, 0xe9f914fbdcff0a0cU, 0x515eb04fae800f1U,
  0x2fd0404f5ef371aU, 0x703f1f30cfef3fdU, 0x6fd140405f60905U, 0x7fffbfefa20ff12U,
  0xff01fa01ff11ff17U, 0xf9fefa0529f3fd00U, 0x5f701fd0c2e08dfU, 0x2edcf106091405ebU,
  0xdd0c120ef70a18fbU, 0x202f40002fffaefU, 0xeb0507f9230101f4U, 0xfeee0cffe4f440edU,
  0x6fd06fb02f7fb14U, 0xec0438f20008c9feU, 0xef06f717160cfcfeU, 0xf9fdf501200b02e6U,
  0x606f80b0c14051dU, 0x918040126f40103U, 0xf5fcf8fb351a070bU, 0x1b02f31bebfc15efU,
  0xbf80a03e51600fdU, 0xfef7fbfbf8f327efU, 0xeaf7fe0b05120df4U, 0x17eef6fc0f04e8faU,
  0x201f90202041404U, 0xdfd06ebdc16ff18U, 0x1040700e6d71608U, 0x4f806f1fdecfdU,
  0xdef418000af9d02bU, 0xee1cf61cfcf8ea3bU, 0x101f6fbfe0c0ed0U, 0xf08f11cf6e61dd4U,
  0xc0604f500ea0ad8U, 0xff04faf618fa0207U, 0xfce207f0f5090511U, 0xb24f7f602fc160bU,
  0xf907fcf6d927ed0aU, 0xe3f22110f0ec02fcU, 0x3fffe180bf3e60cU, 0x2fffef9eb250416U,
  0xdcf102260a11f3f6U, 0xcc19fa05f8e7e8fbU, 0xfefcf9fc1412f533U, 0xdaea081118fd01f2U,
  0x8effe0bf5fde804U, 0xfb04fefd0703f105U, 0xdce9f9210cfb01efU, 0x80ff7fcf9ef1100U,
  0x3f9f3fde8ef1523U, 0x7e509f7fcf4f5ffU, 0x611070cfaf6f4e9U, 0xfefef6faf7060915U,
  0xe7ff06fa04110901U, 0xfbfbf40bedebf5f3U, 0x101f6071c01f4U, 0xf8bbea01270703ffU,
  0x1f04fe05f0f32503U, 0x104fc05ee060ecbU, 0x24ec02fee518edfaU, 0xbff30fbfce81310U,
  0xf4fefffd1124ed20U, 0xe2ef3c03f705e5e0U, 0xd01de02ea001129U, 0xfb02fb06090e0e07U,
  0x8f0f90fee1123ebU, 0x60b05df010d00faU, 0x4f7fef12105ffU, 0x1b0fe91ae6f5140bU,
  0x8ee12f804fefde8U, 0xfcfdf7fc13ee0be6U, 0xe209ff1bfb15f20fU, 0xfecdf6f8ef0fe913U,
  0x5fffcf8f00908feU, 0xe5021001012700efU, 0x1b1be91a0cf6170aU, 0x302f3fe11dee421U,
  0xea20fe19fbfcfeffU, 0xe80a121005ecfd2cU, 0xf7f802f60b000a2bU, 0xf607f6f11aed10f7U,
  0xf208f0f7f1eaf2eeU, 0x2f6fdfa1a06fa06U, 0xeedeef0d15110afdU, 0xf31105fee2e6f902U,
  0xf4fd0702dafb080cU, 0xcd00ddfe20f6ff00U, 0x1008f919f9e4fdfbU, 0xf3010002022702f6U,
  0xd3df0635f71dfadcU, 0x31104fb1ef0f305U, 0xf9fa07f90f0af013U, 0x7131510e909fe0aU,
  0x140efa160b07d811U, 0xfd020004eecff5U, 0xfefd021103eb10e0U, 0x80d00112eecfa00U,
  0xf8fffefdebf00f11U, 0xf2e402f204faefffU, 0x131de503edf90ae6U, 0x5f6fcfc0b050b0aU,
  0xeef2fd0afd0d0d1aU, 0x2c03f224120d0c14U, 0x7ff02f5030f1613U, 0x14fafe0c05dd1cd6U,
  0x15f2fe001b20fffeU, 0x3fc0303002808e9U, 0x231deb02d90602f4U, 0xfa0e00defeef4507U,
  0x4f9faf7160f1812U, 0xf2e0240a0111f1eeU, 0xfcf5eae1fe0e1700U, 0xfbfe02f90109fdfcU,
  0xfcef18ebf3fd082eU, 0xf6f709e7feef06eeU, 0xf8fe00f5f316fff1U, 0x26e6050af90cee0bU,
  0x61204efd40705fdU, 0x30301f7ccf915e4U, 0xfe11200d0103e9f7U, 0xbe706f6dcebf4f2U,
  0xf6f3f301fa00feffU, 0xf8f90ee5ee090923U, 0x90df80fc6fa09feU, 0xf7f80306b9f5df04U,
  0x50e06fefbdff70bU, 0xde03171621d501e7U, 0xf901f900feeffb31U, 0x14d000f811fc0207U,
  0x4f101e6f4c816d7U, 0xf905fe010eee06fbU, 0xfcc0f3030712fb13U, 0x1eb1d1e19e80e20U,
  0xf5fa04fc4b0b1b1bU, 0xd60aee0bf80c08dcU, 0xf5f4f82cfcf2f6ffU, 0x4fdfcfc102502deU,
  0xd2fcdc0e00231fe5U, 0xf9290b0a09e72010U, 0xfef7fefd1c17122cU, 0xfc1b11161c07011dU,
  0x2ef5f6fc0709d415U, 0x6f708f6f4f40901U, 0xf9f1ff13fef902c8U, 0x1cff020702e4d8f5U,
  0x40200ff20ffe929U, 0xf6bbdff0fefe24f6U, 0xff210ff4edefe806U, 0x2f7fb00f6fd0a18U,
  0xd0e20214120b0303U, 0xfd06e42f0d1ef3f4U, 0x4000102f41222f8U, 0x714f4fa14cb20d8U,
  0x12d60de7f60900eaU, 0xfbf7f9fe0e1303e1U, 0xb02eae2e214e6f2U, 0xfb1114c111104306U,
  0xfe07fcfc1c05300eU, 0x110f2304f414f305U, 0x8fd0202e5151010U, 0x7fd0300f1f8ec22U,
  0xddf7080d04fd0fedU, 0x8f50cfa18fcf7f6U, 0x404fa062412f9f2U, 0x24f1fc00eb0ee603U,
  0xef20faf4d8f6fd08U, 0x3f701fefe04fbe5U, 0xdef71b0b030de5f8U, 0xe92d13f1e626e51fU,
  0xf8f9f7e90c0130U, 0xfc19ef0a0dde0b06U, 0xf7f60433ffe7140dU, 0x20205f811f7e807U,
  0xf1f82dfcf6fff6deU, 0xe3e31800fd051c10U, 0x30406f912fc29U, 0x6fc072a02f5d8ecU,
  0xe170cee16e3ddfcU, 0x2df81e140e06150bU, 0x10fb1d05f8f20117U, 0xf20ac202effcf607U,
  0xfe08f6fad412U, 0x700e7260b14e613U, 0xfdfc1004220e2421U, 0xfef0fcf3eff9ef13U,
  0x2f0f607030c1619U, 0x519000d0c33ffe2U, 0xae6f702e704e2fdU, 0xf80fe9f6eef10ef2U,
  0xeb18fafafe0dfe1fU, 0xf110010bff26fbeeU, 0x81400f0e5080dfbU, 0xcf7ff06091ce0f7U,
  0xef1f41a0cfaf11aU, 0xff03ef21111bf007U, 0xf3c70dfa1d0bfd12U, 0x915f91be1070fffU,
  0xe0070ef5120806f9U, 0xd1fefbeb240b1513U, 0xff00227ee0a0dd2U, 0xf6fdffd01b1b26d7U,
  0x1cfe05fd2212bf0cU, 0x4de7fef4fc051802U, 0xf421f41003eeffU, 0x1f8c8ea16101516U,
  0xf3ede70703f9e40dU, 0xaf5e50f0715fd29U, 0x8e4e6e1e10c03fdU, 0xfbe00a0316fcf7feU,
  0x1b01fa091117e209U, 0x12f6132c1126f3eaU, 0xf1ece9f0f60af00fU, 0x3fdf20ce9f6feeaU,
  0xfcff0417decff0f6U, 0xf21ae50004110514U, 0xfd17040909f0e000U, 0xfa0401ee0af4fa0fU,
  0x131f325edf7030bU, 0xfc05fe0d0c02fefbU, 0x7d30a2d16cff0d0U, 0xdb1329ecffedfa02U,
  0xfce3ee0d2d0711f7U, 0xd01e3f4e806f3ddU, 0x90203cffbf204edU, 0xfee800e9f2e803e0U,
  0xddf704ec17e411f1U, 0x19ed1a1dd9031406U, 0xe4fa1df50d08f80aU, 0x101cdc0cf3fcfd0fU,
  0x1705e7fcd406030eU, 0x80b020ded170effU, 0xf14031609f62defU, 0x12ebfff9fafdfc1eU,
  0xff0bf722f1fc090bU, 0xe72ff9f3fbda0810U, 0xfd02fdfa1c27030bU, 0xfe2d02f926f217eaU,
  0xfc090b0af006e30cU, 0x1d1102ea06fef6f3U, 0x11fdfffbf60905f3U, 0x80dfefb23f2f4fdU,
  0x2800e90208f4e605U, 0xef5e9fc0a0ad4f5U, 0x6e1fce5f812100cU, 0xedeffd16e703eef6U,
  0xf404fcf126f6faf3U, 0xe9250ef515d71128U, 0xe5040a07050813edU, 0xfd07faf5f4f80211U,
  0xf507ddea2205e609U, 0x27d6e001ee0b02ffU, 0xeb0700fbfafef305U, 0x10e7fc1ae714fcU,
  0xefecd4fc05f4ef04U, 0x7fc07ff05121a3aU, 0xed0de3ddfa05130dU, 0x5d6200808eaf603U,
  0x3f6e709fe17e0ebU, 0xcf1f608070af4e6U, 0x11ea060208f8f107U, 0xfc01fcfb00fb0bfeU,
  0xfb08f0f0d9de0412U, 0xfb1e09010d1d0d0aU, 0x519010af2fbf70eU, 0xaff02f10014e831U,
  0xe545f0220f0ff804U, 0x41cfdfd2e00e7e4U, 0x10d00905e60e0607U, 0xee163ddbddfc0ef7U,
  0xdef019fa09fd0500U, 0xe6fce027d90a0ffdU, 0x35fc031f12f62017U, 0x11ee0a18fd050a08U,
  0x3fbfb06fffbe6ddU, 0x2ef0c151203060eU, 0x2fe110afd18f90bU, 0xe9fde104c6ff191aU,
  0xcece10cf3eef1f9U, 0x1cfbfff0340524f7U, 0x10d100ef5f50106U, 0x110adbe0040dfb09U,
  0x160afafc01050508U, 0x172719f2d7eaf90aU, 0x1dfc0cf906230907U, 0x52114fa140cfddeU,
  0xe80b070cea16df0bU, 0xf42208fa1800e8f5U, 0x6f6fefdf2fe0603U, 0xffbfee907f40610U,
  0x23f3e9f3ebf7eef1U, 0xfcfcfdf2f01cf4f2U, 0xf2f010ff0fd5fffdU, 0x9daed06f0fd03efU,
  0xf40cf7f904ff11eaU, 0xf319ff03ed0124U, 0xf01d240bf7fd04ebU, 0x4000fdff30b14e7U,
  0x1dfef0301dff06d8U, 0x38f5f103fefe111aU, 0xfbf6091afc151707U, 0x8ffec0606f91ee7U,
  0x5f1e4f9f8111308U, 0x404090a0d0e3331U, 0xfa0406faff04e9e2U, 0xffe315110003032dU,
  0xf5fc0c2508fded0cU, 0xe21100f31102ebfbU, 0x1bd1030405090beeU, 0xfffefdef2b020de8U,
  0x1017eaf1eee5ddfbU, 0x90cfa0a0f232600U, 0xc141c0bff0905fbU, 0xf610f81715f1e6d6U,
  0xec22de18f4fc0a1bU, 0xf1111224ff0210efU, 0xeb03fe0ec4f40dU, 0x1c0418f6e00f0b0eU,
  0xf012180d0a00f917U, 0xe0f6fafeec2600f0U, 0x7f80c0e00ed11f4U, 0xbeb1afceb0909f5U,
  0x3f9030908dcedf2U, 0x30fff08f2f3170dU, 0xf4f71b0cfa280205U, 0xfc35ec0502d9d7f3U,
  0x8fae303f200fd06U, 0xff0bf50bfe211700U, 0xf9f904f60508052eU, 0x819e101fcffedfeU,
  0xfefafc0402011c07U, 0xa21160ff3d1eff0U, 0x4f90aff270a0019U, 0x2c0c0a0512e3fee2U,
  0x31ef4130f010219U, 0xf80004f9f908fde9U, 0xfcf905eff0011e02U, 0xf1f215fcf3fc17e3U,
  0xf70aecf7f6fbfdfcU, 0xf3f203ff0bf80502U, 0xd18f406060b04f3U, 0xf6e7e90af71104fbU,
  0xee0e08ee1a0a0beeU, 0x20fa0afaf5e1021dU, 0xf2f8030e152905ecU, 0x1b1ffbef25ec11f3U,
  0x90cff0621ff0407U, 0xe6e905eafb0afcU, 0xe30d0401f5070a03U, 0x1202dfeb15fd1efcU,
  0xebfd0ef7f809dd00U, 0xf6f9e9eefe021e0bU, 0xf2fcf8ecfcd2fff6U, 0xe7fdedf9fe09fe11U,
  0xf50e0e061f04fbe8U, 0xfdf50c05111ef511U, 0x1d4f7f610ebf4fbU, 0xf4eb00f3f4080f02U,
  0x8dadfe7e91507U, 0xf70a1109fb04f2fdU, 0xf807ef0206f9f4faU, 0x812fb0efbee1020U,
  0xe5161604fd050f11U, 0xa1b1e12f8280ee9U, 0xf9ffe2de140006faU, 0xf4080806f523eaf3U,
  0xf40cf7fdff00fc0bU, 0xf420f6e201eb0de2U, 0xf9ecf4071e0bfdedU, 0x10f6faeb011b02d5U,
  0x10faf5feeaeaf9f3U, 0x4fd0aef0606020aU, 0xfd000c0c02150d03U, 0x302eb15f9e6e0faU,
  0xbfcec0eed0def0dU, 0xfc0ae81d17241306U, 0xfd0402f5d80efe21U, 0xfc08f6f9ee08f314U,
  0xfcf9e70afe05f410U, 0x16fdfc24030ff70bU, 0x23f600eefdf90013U, 0xfdf90e13dedae6ebU,
  0x1705f51ffe0306fbU, 0xece61800051a0406U, 0x10b0401f727ff14U, 0x11fefc1a04f8fe02U,
  0x160220091b08dd04U, 0x1a06e90706fb02fbU, 0x1123090001dbf7f4U, 0xedf108faec180bfaU,
  0xf9100b081112040eU, 0xf0a15010bde1121U, 0xda0406f2ff05f7U, 0x6fb0ae40fef0af2U,
  0x306fd0a0afd1a18U, 0x19ea0a09f5ebe6fdU, 0x100e1010a03fcf6U, 0x5000a06f5eedcccU,
  0xf6ef1ff5f405f700U, 0xfaf7f0f9f6030a01U, 0xf0ceae9e3df20c9U, 0x9f7e413f7060803U,
  0xf809f8050b0b0fe7U, 0x1aff09edebf6f7fcU, 0xbe7f0ff00fbf7e9U, 0x3f50bf7220801f6U,
  0xf104ece1d7211700U, 0x52d190e0cfa0d03U, 0xfc0813fef1e5d0eaU, 0x712020b0febf51bU,
  0xdd010ef2f416faf3U, 0xf01700faeff30400U, 0xe5a2e20bfa350bbcU, 0x1601ed2af2f8e42bU,
  0xf3eaf02e0d02fb01U, 0xf31c09f90fcbf5cdU, 0x8ea092beaf8130fU, 0xf1091c14fc251726U,
  0x5fa01feecccf6f9U, 0xb0afedcfff80b0eU, 0x40f01fc240d25U, 0xf406eff7f40a1d01U,
  0xf817ee0ff4040803U, 0xfbfef3fb04fc0402U, 0x16111dffbde7eb14U, 0xf1fcf708f7020c1cU,
  0x504081c0707fe0fU, 0xf8f9eefd1505071cU, 0xebf5fbeefb110105U, 0xf8210ef6dd0508f7U,
  0xf609fe1529020cf6U, 0xf0ff0604e50709f8U, 0xf5f80204f6e90115U, 0x10f9f107dceb16f0U,
  0xcce9f1010201eb11U, 0xfdf2ed05ecf7fbfbU, 0x81a04edfef5e20cU, 0xe40211f8f617fbf0U,
  0x21a09ed0225f6fdU, 0xfaf3051305f4f415U, 0xe9e4101efb011dfeU, 0xeffa1aed270f03ddU,
  0x22f1e7e1dffc2106U, 0x13f608f933f9f3efU, 0x3908fafb09170904U, 0xd1ecc04fadbf2e6U,
  0xf4ec2bf6120fcffbU, 0x905cb04e3000405U, 0xc0e09fdf9f004c9U, 0xefe0ecfbf305010bU,
  0xfc05000c180ef7e9U, 0xe2040af6f8f7f00cU, 0x6ebf50105fcfdeeU, 0xf7fd16edf9fc12edU,
  0xd4f305e4f21a090cU, 0xa3cf6fc010306f9U, 0x30616090cfae0f3U, 0x1a0b18060e081bU,
  0xe0f01605dd0af50aU, 0xedfe0a11e8070b15U, 0x1e4f70bfd2201daU, 0x3fdeb101505ea0dU,
  0xa07f90e1de1e402U, 0xe9e814d7170aeef1U, 0xbf4033c05d115eaU, 0xfbdf17e70b0407f8U,
  0x6fa02fdf3f3cbe6U, 0xf80701de070110fdU, 0xf2040c06ee05fe27U, 0xfbe4ecffe81805f4U,
  0x806e10ffcfa0319U, 0xfaed0517ff11feeaU, 0xc071ed5b405f22eU, 0xffe3ec070904fa02U,
  0x906f6fe213cf418U, 0xddfbe6f318dbf121U, 0xe70203e62711fb11U, 0x2618010902fb0620U,
  0xf10e0708f9edfc13U, 0xf8ee0aff1d0ff7e7U, 0x200709e40ef401e9U, 0x7050008ecea0fffU,
  0xf03dff20f05ed1aU, 0xf503fd0e09db0806U, 0x1802000714f60b0eU, 0xe2020000dc06fdf6U,
  0xd0005f70aff090bU, 0x51fff14f8e4011aU, 0xf008f6141f100ef6U, 0x231409ee2a0623d6U,
  0xdb0fef03fafe01efU, 0x9e506f4eefaf1f5U, 0xeb09f9f10c200df9U, 0xfbfee7fa0bfde9f0U,
  0xf7e83ef10703d2d8U, 0x3fec4e1ef2be7eeU, 0x4fc10d2f00513e2U, 0x19f50a1eea0a15ebU,
  0xf5060905010ef6e9U, 0xe0b0debf6fff505U, 0x15de06fe0b070b08U, 0x2051e04e60206f7U,
  0xeb12fce4ed282802U, 0xfa0cfbfb14160efdU, 0x101c13f6121ac0e9U, 0x141f0b17f617fb05U,
  0xe2e500fe051ef40bU, 0xb1001f905f8fd0bU, 0xffc60412e71a0de3U, 0x17e6e512f2dcfdf0U,
  0x9dc0e03f2d2f915U, 0xfc0407f5020af9edU, 0xeaf73012e007fcU, 0x1af807f9100f15f8U,
  0x1e601fbfc21e8e5U, 0xda031dcd170b1713U, 0x1618040617fbdd25U, 0x31e8f7f5d115fdedU,
  0x19fbe2141c100b07U, 0x1002fd0df91412f0U, 0xfd0614b7d6ebfb23U, 0xddadf330005feedU,
  0xd0b0cf9091efdfcU, 0xe6fbe3f8f1ebe307U, 0x3fa07f921120309U, 0x2110c091400fc0cU,
  0xf6fb0e0b0206eb1bU, 0x28f5f31f0501ffecU, 0x5effdea16e50bdcU, 0x1100cffee8fd2821U,
  0xfbe6e9e60df8ee02U, 0xfff2010cf9e42d01U, 0xd07010e19ec16ebU, 0xe405dfeff8f90f0aU,
  0xf8f3070114011a13U, 0xfa11f6fbfb01023dU, 0x58e808020611eaU, 0xb1707dd281830cfU,
  0xd4f3faf9151302e5U, 0x26d115fdf4000dfaU, 0x12fc0afcf424fed9U, 0xf70bf41a09f336f1U,
  0xede408d002ffe6eeU, 0xfdfddee0e90ce9ffU, 0xfbe70bfbf914f8fcU, 0xf8f0f9fdf20a0325U,
  0xf00e131f0e11e109U, 0xfe1b13f331f50808U, 0xfce5030efa04f00aU, 0xf9070812ea09d1e6U,
  0x1fe18d3f41502edU, 0x200faf8f50511e7U, 0xf70b16edde16ddaeU, 0x124f40bfaf615efU,
  0xdd09e8f10624fc0bU, 0xfc2a0513f8e9080cU, 0x3bc0a0404fd12d2U, 0xfdf00619eddaf8f7U,
  0xf0e40a12e7f4f3f9U, 0xf8f606d808f2e9f0U, 0xfc02fe1bfc0dfb0cU, 0xf40805fee41efcfdU,
  0xff140cfa00d7f718U, 0xe4f8efd1f700f520U, 0x13e8160effea53U, 0xf401e4f704250d08U,
  0xdce4ed0209150401U, 0x713f4fef81614eaU, 0xfb0bfff5f501fd0dU, 0xf8decb24072116f0U,
  0xfd1a0e07ed1d2500U, 0x1f16dc16f2e71cf9U, 0x19fe10fd36040710U, 0x35ff050d1ad6030bU,
  0xfa05fee9e0f0da2bU, 0xf0efe511f81cf2ddU, 0xe70905ebfbe524d3U, 0xc19ec0d08d9fe04U,
  0x9e4e1fafa132e1bU, 0xfa1025100b0b3c17U, 0x16e3f308fef3f8faU, 0xf7f4e3d91e0509f8U,
  0x1bfe07fb1a09070dU, 0x1ae618fb03c9e722U, 0xf12bea2303ef24f2U, 0x1dee21e424f908d1U,
  0xf20eeed41beb0eddU, 0x33ca0af1fd1af7e3U, 0x812f8ef0d0ae6c8U, 0x106d60ef6fe53ffU,
  0xf7f40acf1009db00U, 0x502d1f3e408f70eU, 0x15200bccd5f4190cU, 0x130df0fd0d0cfbe1U,
  0xb0e06ede8fde8efU, 0xb31709c317fbfd0aU, 0x2fdcf80ff8fbe01cU, 0xdd00ff1cf10ecffbU,
  0xe1ff00bf060406faU, 0x619f2f700fafaf5U, 0xf401fff7f71a03c0U, 0x2ed7f6040e2aef0aU,
  0xe5e610fb17dc13f6U, 0x1ae71ffc07f71519U, 0x5e4f8e5ee090813U, 0x801fd3b050aefe8U,
  0x204f7f9e2ede8e3U, 0xafc07ed05010704U, 0xf3f01a0013ed02U, 0x1700eff5e930e5feU,
  0xf41004fc362106eeU, 0xed06fb1601fcea02U, 0xf8f00bed0f1421f4U, 0x4e4f3f6fcfc25f3U,
  0xfc0b13f3b2132202U, 0xe21208010a0b0b10U, 0xfd0df90700dc2df2U, 0xdd02f6fff1ebfaf1U,
  0xec04dd1d11e8d9fdU, 0x1000d380912ee2bU, 0x19e7e8dde7fd1be9U, 0x231aee16f621e006U,
  0xf0f90ffb0f04e6f4U, 0xbe5f5f60a002018U, 0x19f80c0fe42ff7feU, 0xf8fdeafee4fee90cU,
  0x160605fc2b07fd04U, 0x1703e60114f2db15U, 0xf0090d151fd3fc07U, 0x1b03e9f210191e15U,
  0xafde40c101d0afdU, 0xfcf9f520e012e312U, 0xbf0dd2f92f13e819U, 0x29ff2027f20ad1d1U,
  0x10fc0e00ecfdf80fU, 0xf7230c1510f8f8f1U, 0xed0403ed040e13ecU, 0xeb18070c0becdbd9U,
  0x25e409effbea26faU, 0x9f9290a041b0908U, 0x1efeb02f2f513fbU, 0x1a190a08f3eafd04U,
  0x12ef140613f8ffcfU, 0x71011f5281c05f8U, 0x12fc05f3eb12ed03U, 0xd2dae5e41ffddcdbU,
  0xf80b09f411183104U, 0xfaf1db0bebfaf8ebU, 0xf1fe1105e600cf03U, 0xfdecf916051b0dfcU,
  0x18fdcefdf00621efU, 0x10020501fdf0f31cU, 0xf7f910eaf6f81821U, 0xcfaf423d402eb00U,
  0x91c13f5edc4f4eaU, 0xebfdf1ff0df6e006U, 0xea1bf105071ff307U, 0xe4ef043905090008U,
  0xe6f811ff29f2ebf4U, 0xf50f041216ff0000U, 0x30afbfff4fff806U, 0x140f04fa27ea2305U,
  0xfc0426e7c7fdfcfaU, 0x107d40326f404efU, 0x80ffbfc191d3a06U, 0xe001e1201070db7U,
  0x4ece2f5101b0d0dU, 0x36130c0bdf24eb16U, 0xeffd12e9ecceff05U, 0x9040b040e21effbU,
  0x7fb02f3fc0b0404U, 0xdd30bff07080e04U, 0xb1efcf3d117fff2U, 0xfde70fede40dfe1fU,
  0xda1610ed2f13f603U, 0xf80e2420130dfff3U, 0x5fcef0bfdeb0f0eU, 0x22ef00f0f70d0efcU,
  0xf8ee09feef060502U, 0xff04f7f7fc000debU, 0xd704d60211d1ef11U, 0xf4e31012fe1cf3e1U,
  0xfe03f20beaef0100U, 0x80e0b1a0504f9dcU, 0x3f4140ef6feeff1U, 0xf9f31009fe0ad8ebU,
  0xf1edfcec050c2102U, 0x15e7131df5090bfbU, 0xf9f80f05ff0bfef1U, 0x24d816ff00ef0c21U,
  0xf9fa102009e10eddU, 0xf5f60ae10413fefdU, 0xee11ff0f011b06f1U, 0x110be900efdcf5f3U,
  0x7f3f807001014f2U, 0x11f9050bff02f912U, 0x1521f6150403e9f6U, 0xf8f5fe0dd5f710f1U,
  0xecfadffc00f4f41fU, 0xf400e8120b1306e0U, 0xf5f512ebfc0e0918U, 0xf4faf0e612060c14U,
  0xb4b0c0bede4ebc4U, 0x115f603fbedf7fdU, 0xfbf821f3df09e9e9U, 0xe1ed140113000707U,
  0xee0a290c07f70b08U, 0xf10cf315ebfc070cU, 0xff1818030103f70aU, 0x11f6fee800ff1604U,
  0x12ec2d0d07090dd8U, 0xe8f302eb13f122f5U, 0x2effbec10000bfbU, 0x1503fe0317f6fddbU,
  0x4e7011317de07feU, 0x10a0600fb0e0523U, 0xbb1700f224d10311U, 0x25ef01f8effb0d03U,
  0xf4f8f00402220608U, 0x13d8faf4f4050fd9U, 0x1ea02f8d10515eeU, 0xfb1ff004ef0a13U,
  0xcedf2e8061bf31eU, 0xdf629e9ff0ceeU, 0xdffc06e508f40c13U, 0x9f50b0a09fb0e0cU,
  0xf5e3f5ff20e50ee9U, 0xefef0eddff121cecU, 0xf100d8e606eef225U, 0xe813f303e3ff27f5U,
  0xff04f510f6fe0e0eU, 0xe607f41af3fef6d0U, 0x1ea120c01fefb04U, 0x2eb1cf510eecceaU,
  0x92201f005e80e17U, 0xfbf9f50f06f6e2e5U, 0x2fb00f700ff1a02U, 0x7f105e6fdf60afaU,
  0x1afcf10514be0cf8U, 0xeafb04fb17f5f4fcU, 0x91214f20cfdfceeU, 0x1d0d00f800f4f6fcU,
  0xfcf3fef9040ff3ffU, 0xf6ec0b191610ef05U, 0xafb1bf118fd000eU, 0xeaed09f7ecfa04U,
  0x13e7f00a09fedef9U, 0xd08efe5fc0cf8faU, 0x6f00103f50bf5f9U, 0xf1f0ee11102000U,
  0x300003fa07e7efebU, 0xe7f1f2eaf9da1212U, 0xdea0a10d412e0d9U, 0xf906f0f60bfafefcU,
  0x5fdfe080cef0e0bU, 0xed05f9080705d205U, 0x70def08fef7f60eU, 0x10f0102e10b130bU,
  0xff120a0305ff07eaU, 0xf212f9e126fb0804U, 0xfde7fbfaff0602f8U, 0x5f9e0ea11f210e8U,
  0x100a0810fdec1102U, 0x111a13ebe21300f4U, 0xfbdae2eb0bee0516U, 0xd2f7f4f0eb0902faU,
  0xfbf6f9e10120e80bU, 0xfef1f6e300f9f6cbU, 0x30902f8f8fa21f2U, 0xe7f21dfff5eada13U,
  0xfd6f1f11d0c000bU, 0x60def02010dd6f0U, 0x102f30de2f8effcU, 0xcdde612fce900f9U,
  0xf5f71217f6eb05d8U, 0xf5020e16f803eddbU, 0xeb1cf0e8e9dbf821U, 0xfde4100a1ae6e117U,
  0x226ef1bebf303f9U, 0x304f0ef0dffe80fU, 0xeaf5f3fb04fee004U, 0xfef7fb060a00e105U,
  0xf3b700f4faf12817U, 0x311172914ef0409U, 0xfaf1f1ebf6f104fbU, 0xfaf607f90803fcebU,
  0xfef40df4f4d605deU, 0xfafe0f0a0409faf9U, 0x201c1001f604e1fcU, 0xe814f2e306ec0c08U,
  0x60fe2f4ebf6ecfdU, 0xf9fd2ef102fb2be9U, 0xe8fd29dc09f61309U, 0xfcf8fdd1ecf50702U,
  0xcf7f8f81310e7e4U, 0xef150502f1040106U, 0x500f7fce90cedfeU, 0xf6fef5ee00d02f04U,
  0xf2f7180debee0108U, 0xeff7f60bf7df1105U, 0xf9e0d3f5dcfff70dU, 0xefdfc5601e0eeeaU,
  0x919030d07fefffcU, 0x8fbfd0ff8f1f504U, 0xfef818f7fce60f11U, 0xf8f800f5d1e40b01U,
  0xf7071000161d1e04U, 0xe6f70ff7091aeffaU, 0x5f0fcf8ddfff30aU, 0xedd4ea0ff0001109U,
  0x140826dcf3fce914U, 0xa160efb100c0510U, 0xc9e5f2fe1200f9e4U, 0xf7f5e10f10f00f12U,
  0xfea01e705fdf708U, 0xf402fde506f402f5U, 0xfef7ecedfbfe20f4U, 0x2f2090ff2c928ffU,
  0x6e9f1fbf4f80203U, 0x806fcf325f61404U, 0xfaf7f703f313f9e8U, 0xf1e4f1030ae8f806U,
  0x3f5d60af6fa16fcU, 0xf4f105f00cecf3e1U, 0xf511fee00af80a18U, 0x702fde7ffb800ddU,
  0xee09e50af2ed08f9U, 0x14ede3db000a19e7U, 0xf21215fc06f9ff00U, 0xfe12f117f5ecff1cU,
  0xe0f7f9ff0bedfe13U, 0x1b0e141503ceff1bU, 0xf1fff3101cf3effbU, 0xf1e510f7050306dcU,
  0xfeef08f6d704f6eaU, 0xe6fefdfdfaf8f60cU, 0x1c1c0d0e09070e17U, 0xe70803f315030f0cU,
  0x216eb0002092503U, 0xd8042afefb080de0U, 0xf80f06d80dfe1417U, 0xff03f8ece0060902U,
  0xd50503040902141eU, 0xa131910fbea0913U, 0xfbfafb0dee12ff09U, 0xfbeff4060d211700U,
  0x33f512e0f21b141cU, 0xf0f310ef0bd60ee8U, 0xf7d8fbfe09ff09U, 0xcf8d5dd21fcf8edU,
  0xff0ceffff7fdeeddU, 0xee6070ef5e6fbffU, 0x1105f1f10106fe04U, 0xfb010ef9e5030107U,
  0xe20302f202f11c0aU, 0xf90dfbff0a1ae90aU, 0x15faf70bfe0cda14U, 0x1d9d7fad9e3fcfcU,
  0xf3fc0b04fceee72aU, 0xf215070210fa03ebU, 0xf7f4ffefefbff40fU, 0x5f1ed051ef40a05U,
  0xfaf6fafb1e14ef0cU, 0xf31adff30eea08fbU, 0xe6f1f7d605e11104U, 0xfbe71206ece7f405U,
  0x3e0fbe7120c0d07U, 0x1ae715f6e105f4f8U, 0xb00fcf5f4faf5f8U, 0xf5fffa00f0f6fb08U,
  0x1ec020f0ffef902U, 0x12030af3f6e62b12U, 0xf916f8f916fefb0cU, 0x25dc07e7ccfefed0U,
  0xd0df2110f0906ffU, 0x20f7e6d3fbf50ae9U, 0xea0500e41dfc0512U, 0xfe17ea0b0f1d0af4U,
  0xe5dcf9eaedf23b06U, 0xee0c4b0b05f5060bU, 0x1b00ebf807eb0612U, 0xd9eb14000d040afeU,
  0xe2fe01eef508fd0bU, 0x405f0f8ff1efcfaU, 0x1af8f9191f0bf32dU, 0x11e1f5020bf8f6U,
  0xf709f1ee010dffecU, 0xe40b13ffe809fde8U, 0xef0dffe21a0a0003U, 0x4fe05e501fe001dU,
  0xd8fbfe1d15f9f215U, 0x1918fedcfae3f40cU, 0x11df00a080e0e14U, 0x6e2f5dfede406f2U,
  0xe9d5232623f908ffU, 0xfe03ef0308e503c9U, 0xfcf1f40a1309f848U, 0xe40ae207f0fefd02U,
  0x3eaf2fd0111f9e4U, 0xfcf0fd20f4eae8efU, 0xf9ed07020d17ff05U, 0x8fb130df0d90903U,
  0xdbf5f0f618010fefU, 0x1b3707060cfbf90aU, 0xef00f5efef09f8U, 0xedfaecfaee02fc24U,
  0xfe0ea050deaf6ffU, 0x1211faf5ce0207e5U, 0x3070efdddfd0bedU, 0xc09d4041f180fe3U,
  0x16f1f4faf61bf1fbU, 0xee18cdef0c120709U, 0xfbe2f003f41122fdU, 0xf3fbfe17fef6fbf6U,
  0xdd1f3f115f308f7U, 0x8e502f3f40de30fU, 0x15f3fced04fa090aU, 0xf4f00cf6ef080d02U,
  0xfdfbe907e30200f9U, 0x15ee15f903f20923U, 0x80f11f7f002f726U, 0xf0dbf8e0f61c14eeU,
  0xced0113f9f703U, 0xff7dcdd2bdf17f8U, 0x28f404f803e80dfdU, 0xf9e1eb08f50414e2U,
  0xdafbf9f4f0fd3211U, 0xf4ea391de5ec0006U, 0xff308e916f6ee16U, 0xd4d6f3010c1f0aedU,
  0x1fa0011bdfdfe11U, 0xfa03f3f30ae2fff6U, 0xfd3f6ef2504c515U, 0x700d80506dcfcf6U,
  0xf20303e1eaf025f7U, 0xdf0de5fae10906f6U, 0xf3fee8020703eaf4U, 0x5fdf013020b131cU,
  0xf1fcfdf7f0fdfcfbU, 0xdf08f621e1f90f08U, 0xfafbfbed1403140aU, 0x19f702f10af909ffU,
  0x1f0615031a08dde8U, 0x80e0408ffea01f3U, 0x5facff2180703feU, 0xe40af31102fff80dU,
  0xfaf3f704ef14fcdeU, 0x11f00a13e5d1de06U, 0xfff605f108120cfdU, 0xff03fc00f2200403U,
  0x1e30fafac911feedU, 0xeaedf4f02f04e216U, 0xf1fffff0f6f2df06U, 0xf6ece0f4edf3f412U,
  0xf2eaeefa08eefcf1U, 0x18f6fdfbca03f2dfU, 0x90013eb00f20a04U, 0xcfcec0d0dfa1601U,
  0xf6e701feea0af90fU, 0xf1ecf9f6fa2ceaffU, 0xde05010ae9d4081fU, 0xfbfb1502fbe011e8U,
  0xf1da16f2f6fa0104U, 0x2cd7020415f4fd08U, 0x15fdfa0fd8fbfaebU, 0x28e10afff40210f2U,
  0xfbfaf1fdf2fd1911U, 0xedfa10ff16f6c2f6U, 0xf7f216fc2000fc2fU, 0x1505fe09e72410f2U,
  0xffff070b14e81403U, 0x170bcfe4390c16edU, 0x2ef40c070aec2704U, 0x300e80ae8fb0df0U,
  0xfcfaf7f7ff022508U, 0x3e82a1700dac602U, 0x4f204ef01fdfc15U, 0xeeef010a0531ffc6U,
  0xfa0411f6e1f40806U, 0xf1f8fef7ebd9fb03U, 0xd0f8f832ecdf10U, 0xcfeae308f70a071aU,
  0xf41bf6e7fff21105U, 0xee0c1af1fc08fd02U, 0xfc21110afa05cf01U, 0xfefbf6faf406001aU,
  0x1b32f6dd0b050ceaU, 0xd8f8ef17e715f3f9U, 0x31106f2090a161bU, 0xfdeafce828fe04edU,
  0xfe0118f8fa04e306U, 0xf8020f0a06f90aedU, 0xaec11ff25f70204U, 0xf7e40f0cf9101212U,
  0xedeafafafc07f8dbU, 0xf9f00afce3cd0d07U, 0xfcec1ee81b0c0608U, 0xfe05faf6a4caebebU,
  0x20dbf309ede104f6U, 0xeeed101302fcd917U, 0xf7f013f6f8e1a410U, 0xf5150413f3d4e913U,
  0xf5eadae5edf602fdU, 0x18f9f004fbfae4d6U, 0x2f900def51413f3U, 0xe615f30a20ef0604U,
  0x1f100fa0cf2f609U, 0x3f9fe02eb0eed1aU, 0x2f0806fc0cfce519U, 0xf5fe131202d42203U,
  0xefdafd1903cae5faU, 0x27bfd4fa080d0a15U, 0x21f8e4e22204fdf2U, 0x9e5eef5dc0606f4U,
  0xeff512dc0ef808fdU, 0x1102061911ebe014U, 0xdf3f932d512ff34U, 0x808e910f4f10fe1U,
  0xf80509f4f9f0070cU, 0xfbe6c1fe22e81811U, 0xd2ea2a07f6e523faU, 0xdef06f6dbef2c17U,
  0xc2d40701f6ee2109U, 0x5f23013faefd6f6U, 0x17fafbf00d0debf8U, 0xebdcff00f01817c7U,
  0xfbf905f31d13e3f3U, 0xf40fea03facf18ffU, 0xf2082f16360de521U, 0xebebef11f5f31704U,
  0xef15f107f7101f02U, 0xdc11190ff0f91508U, 0xe10509130103da0aU, 0x19f0f5fceef905fcU,
  0xd9151913ee2602f8U, 0xde020126e6f1000aU, 0x90ceb01f30c1cf9U, 0xe1f9e6e8ef152defU,
  0xe5ee17f0ff13d8f1U, 0x6f10bf301bd1eefU, 0xdee06fe09000a0dU, 0xc10230a0dfc1ae8U,
  0x171a0df6e4ebef04U, 0x3fb1708f2eff505U, 0x30111e5213efbf7U, 0x1fbd302180917ebU,
  0x19f8fe08151ae0fdU, 0xcae71afe1838fa0dU, 0xfde10acefb19fd08U, 0x10f9080df802fe1aU,
  0xd5ecf11524c101d6U, 0xe505ec0b0bee1210U, 0x411422dedbfaf3edU, 0x1c10f5341a28f8faU,
  0xdd15fabeefd80d05U, 0x1fdfb09ff1afeeeU, 0xfbd6ce18d60dfc00U, 0xfe0dea18fe0508f6U,
  0xed090a14ec1315f2U, 0xf6d1de0ae7d7f708U, 0xf4fffd040f0eef15U, 0xf2dc110b0838eaf4U,
  0xae90e22e3d20527U, 0xf704ddfd15f50a21U, 0x7f0f623160310e0U, 0x17e2e4280c0cf200U,
  0xf60d03f8180df307U, 0x10edfef70d0d0805U, 0x190bfa030deb0b04U, 0x7edd3eeea131dfcU,
  0xf0093001f900184dU, 0xfdf407bfecb9b4eeU, 0x1ee3faf8f2102302U, 0xdafb240cfa0d1cefU,
  0xf5f722ebf2d40e0bU, 0x160bf7e5eb04f4faU, 0xdf00f1fdf309f10eU, 0x110005ebfdf9090cU,
  0xe1909dffee6f0f2U, 0xf10f1fd5fefce819U, 0xfc1c2102fc281bfaU, 0x406f213191306fcU,
  0xec1f00ff1004f1f8U, 0xd0e0dfafd16071bU, 0xf7e2f4230005ffe4U, 0xe0e130012112f7e5U,
  0xfc2e2bfce215f0U, 0xddee70802ee20U, 0xfa09f722f8fa15baU, 0x20eafb080ae9eebdU,
  0xecfafd001001ef06U, 0x22fd1205fb0d0dfcU, 0x16010eed130bf6f8U, 0x6fbe7f02700f2e4U,
  0x4f5fc040cebf1efU, 0x23df030715f9e70bU, 0xf80a0605f8f6edddU, 0x4ee0307ecddfe04U,
  0x1fefc3004dedeedU, 0xdc09e5fd0aedfffcU, 0x2000cd6020504fcU, 0xfc19f50edf21f829U,
  0xf60f05ccecfdf3efU, 0xf4100305fa05e8f7U, 0x8e5ea18f1fd05f3U, 0x500ea13010b0500U,
  0xf30a07070c00f901U, 0xeeecf91200eff615U, 0x1ebf7050bfc04f5U, 0x5162018ff07e202U,
  0xf2f808fed6e30514U, 0xf81efcf718f80f05U, 0xf6e107b1ed05f904U, 0xffccf3f7ef0d09fcU,
  0x3eeea17f0f605U, 0x1fe30dfd10f60914U, 0x10f80f0708effce3U, 0x503d311f1f90c03U,
  0xe5001108f6ee262bU, 0x507f2dbede0d1e5U, 0xbeeecdee3152a12U, 0xdd011e06fcf8171aU,
  0x40708ea16c80be6U, 0xbf2ece116fbfaf7U, 0xe8001bfbe214fd17U, 0xfef30df0fafe090cU,
  0x121323caebfbf60bU, 0xf40e15f7ef041612U, 0xc0d04f2cc14f2e8U, 0xafcfff4efef01ecU,
  0xe708000a0ef8f8f3U, 0xef030c18f2061709U, 0xafe1afc1a0fea15U, 0xf9e91209fefcf6f9U,
  0xd131b0ecdf81feaU, 0xf0ebe8f10602fdfcU, 0xd14f6fe0b051cf5U, 0x1f900fceee5eb0cU,
  0xfe1f802ed0beb05U, 0xfffb13fc0d0f0cfcU, 0xfcfdfbfc1ce90201U, 0xf0ebdbf71118fd0aU,
  0x1e1bfd1e2a21f6faU, 0xe6fe04030c27df08U, 0xf8f8100201f1efe9U, 0x1afe0705f9eef202U,
  0xf6f4ec0a0c0013f4U, 0x12f901f9e6f2edffU, 0x4f2f8dd00ffe509U, 0xa03fe130205082aU,
  0xff151ad9eaf4f9f4U, 0xe4080ffdfcf6e0faU, 0xf70a0905f514fe04U, 0x150af3f908ff0efaU,
  0x1a06e61aed06fbedU, 0x2d6fe14f1cffc01U, 0xf90b0cff01ed0c0bU, 0xefb0e0aec17fb05U,
  0x2af606010a07fb21U, 0x5fe1fee1af9ff05U, 0xe901dbff05fcf0U, 0xf040815dbe70dU,
  0x1406040af100e306U, 0x9ecfefa02010d09U, 0x3f5f109180ff3e5U, 0xdecf109ecf80bf5U,
  0xfa1220f3f3195743U, 0x19ffd2e20ae6dfe1U, 0x6f60f09f70002e3U, 0xe30e0f0b0cfaf604U,
  0xef126f5fff816feU, 0xd106f6eb0bfa0510U, 0xf00217f7f4010b1aU, 0xf9e602ed04e50defU,
  0xef1c22e400e6e00eU, 0xf80eff0605022902U, 0x810fa10e115e8edU, 0x12600140ff7fcddU,
  0xd00eefdfcf31df9U, 0xa0806f9081517feU, 0xe7350a0f18ffebefU, 0x7f31a060f11001bU,
  0x1405f2fc080ce7U, 0xf0e407fe1310fbfcU, 0x271100230409fbdcU, 0x31d0ef401fe0208U,
  0xf8e800ed0d14e50aU, 0x19fd0d04ec1d03fcU, 0xf7fe03f505f308f1U, 0x18e60510ff03f7U,
  0x8f21d110d04f8fdU, 0xfe0ffe00db09040bU, 0xebf103030c01e102U, 0x23f5ff1305fd03fdU,
  0xeff7041cf6f0e0e4U, 0xf9f508ffe3effd02U, 0xdfdf9df15e5e7feU, 0xf416fcfdf9fe0314U,
  0xb0b0aff11f6fff9U, 0xb0d070cfdef0df4U, 0xd10f5fe0624d80bU, 0x6000f060cf7110bU,
  0x1803e61beff11208U, 0xfa17ffecf5f9fb13U, 0xc0eeb00fef40108U, 0xf2e90dfff30afaf9U,
  0xfef7f5f7f9fceb12U, 0x330f8ebf8e61218U, 0x4e5fddb052bf3faU, 0xfedaf8e804ffe30dU,
  0x70705ff08ebee25U, 0x1c04f8fcf50cff05U, 0x5ee030318070be2U, 0x10faed02edf82502U,
  0xfcf906d4fcfd0d18U, 0x6f8f81ff1dec5c8U, 0xf2e70ef70afd04f8U, 0xec02031a170c0affU,
  0xcee03f61ef00424U, 0x7ffeef50c07fbffU, 0xff081af9ee041006U, 0xf8eefafb06fffa04U,
  0xeff8f5f3fdf8fbfaU, 0xebfb10100ffa20f4U, 0xfe0f1c0adf00e3ebU, 0x4101811e7f9fa01U,
  0xf1ffeff00a0e1cfeU, 0xcf0a02eff3ff0c1bU, 0xfc0f15e6f0f20915U, 0xfaef2029fa06030cU,
  0xf91afd04f321f9f7U, 0xfa04efe2100e0119U, 0xf5fb1419021c03daU, 0xf9f603fdfed609edU,
  0x6f6eef3010b0808U, 0x110905faf61e0ef0U, 0xf8ec00f201ea15feU, 0xed08df0fffdf11fbU,
  0xaf4f3f10c0702fbU, 0xe9fd17fee911041dU, 0xe110f50118edfeeaU, 0xcf9050308f0fe14U,
  0xe8fdf605e4f4bdfaU, 0x21db090d1109fe02U, 0xfa13f7be0800f7f1U, 0x19fb02f903f3fa1cU,
  0x1122001f06e8fbfbU, 0xeae6ff06e4020901U, 0xa0512f50e240807U, 0xa0aff14db0015f6U,
  0xd3f70603f6f4f4f6U, 0xf6fc1df2ffc3e91cU, 0x5fe0a06f6ffe9e5U, 0x80004fee6fde91cU,
  0xf30c09eff6090221U, 0xf211fd01f807f913U, 0x9d4f9e9f70e03eeU, 0x17edfd1b14e8d20dU,
  0x70feb1302f02210U, 0x180f050a030a02f6U, 0x50001f809f7f9e9U, 0x14e9011afd070af1U,
  0x50f20c004f60109U, 0x5030bfff0e30fbfU, 0xb13070e07021200U, 0xef02f40eef192414U,
  0x1e03f0011be6010bU, 0x29181b00ebf1f417U, 0xfc060c0de7020c01U, 0xfcf3fe10090c1604U,
  0xff0906f4060bed05U, 0xff12eb12e4fc11f7U, 0xb1cfd010a0ffeU, 0xf90afcf10e08fd0cU,
  0xd020a03ed0af7fcU, 0xf9140721fe02210fU, 0x202050e0100fedfU, 0xb1dfae2f4000108U,
  0xee3403efe1f0f104U, 0xf4090f011fedf2eaU, 0x140c0407f70e090aU, 0x13f40bef17010afeU,
  0xfcf1e8de0f11eb05U, 0x11f8f8f202190c1dU, 0x2f8ffe7f5d3fce0U, 0xe709f9f3fdedfaf3U,
  0x1bf5d92613dd07f7U, 0x11190cfffd2aec03U, 0x6061306fbf6e5e0U, 0xfffcfef8f9f5070cU,
  0xe616df1b060bed0cU, 0xf20afceaebf9080dU, 0xfdf1fbd3f21ffc01U, 0x10fef81906fe06e4U,
  0x91f0803eef602f5U, 0xf6090b0ce2ec0affU, 0x1613eff91f21f703U, 0x404071405060ce9U,
  0xcf9f81ee8ea0a07U, 0xe4e7fbe7fc0ac413U, 0x4f1fdf2ef0409fcU, 0xe8de13f4f42a0b01U,
  0x30d1716eff0fb0fU, 0xdde5ff171104faf1U, 0x9e5fbf010100ad3U, 0x4fe1ff410e41220U,
  0x2ffdf509d3e41cfeU, 0xf103fa0f05fd07ebU, 0xdfef2fe0cef00ffU, 0x1b0dd21becfc40fdU,
  0xff0a11bdf9ebf226U, 0xfd0912d8fff6d2ceU, 0xdff22701f10906feU, 0xebfff70d230c02dfU,
  0x5010eff00d31c16U, 0xf8070ff8f4f8fb10U, 0xfe0203fffa021605U, 0xf4f1000d050e0ef6U,
  0xf00af612f80310f7U, 0xf9240a0af5ed14f6U, 0xf81a15f3fb1802f3U, 0xeb0df706f220f0f5U,
  0x6ed25f0effd0506U, 0x2705fb08fe061a20U, 0x170ffbe8eff61a02U, 0xeb090910030bf3f8U,
  0xfd15040e0212e802U, 0x4e51cf50c0af018U, 0x6fe001907ef0acfU, 0x5020b10fa1420c6U,
  0xff0af4ed0710e404U, 0x1bef06fa06f3071aU, 0xefc00f20ae006f2U, 0xf7fb0f01f906edf0U,
  0xb07bdffe81ceefaU, 0x3f61dfaf2e4f603U, 0x1f1fdeaf801fb06U, 0x8fa0607fd1fe911U,
  0xe0bec0707f8370eU, 0xd70702f0c9e5f610U, 0xe30a05f02604051dU, 0xd60c03e6e1091909U,
  0x1417080defedee08U, 0xe1ec1513fef4dff9U, 0xfae5fc0004080a04U, 0xfe120f07f20008e6U,
  0x13edfa04fee9f806U, 0xccf401ef0a0fec00U, 0x1702fc0cdf13fe1dU, 0xf103060dfffd1016U,
  0xf609fa00fe031802U, 0xefefa0af9fe0aecU, 0xec09feaa131514dbU, 0x18f700eb13f6150bU,
  0x216040807ef15f8U, 0xfdfef6fb071106e0U, 0x11f4fa0dfef10c07U, 0xfef2e6eafff91816U,
  0x41842c10911d812U, 0xeb150fe6e4f0d6e2U, 0xf5fd05fc0706eb03U, 0x508ee1e1714f5f8U,
  0x1108e40617d108f3U, 0xfe0d02fef6ff0002U, 0x509f9f9e10914f2U, 0xefed00ece8fc0deeU,
  0xf40afd08ed10f004U, 0xfc05fcfe170b01d9U, 0xef0a0503f50d03f4U, 0x1b0a11f6efedfc12U,
  0xe0db12d7fcf6fdf9U, 0x12dd121421ff1606U, 0xae3f2d7f00d030cU, 0x50ccf17f9e40419U,
  0xa28fefe0cfdefc2U, 0x1c0f01f607f40812U, 0xdb0df807040516feU, 0x11f802fbfae511edU,
  0x11070af4fd03dc02U, 0x6f205f01b00f024U, 0xd3ec0ce702e70801U, 0x17e5080ee0f806e7U,
  0xf4f4fa10f1190106U, 0xfe2df909f8dff3f9U, 0x50c01f506fff1fbU, 0x9f2f9251820fb02U,
  0x4f3d60f0d03f8ffU, 0xd306001313ecf9f2U, 0xdd080cdd220cfc17U, 0xf01907e8e2ff111fU,
  0x14eb120efe0fe904U, 0xfcff011c10f5e8f7U, 0xfe04f8001109f4f4U, 0x208e814f60e0607U,
  0xf001f30bf1fa2409U, 0xcecf9f605d6de04U, 0xfd0b0205f20eee0cU, 0xe8dbfe02fafb020eU,
  0xebfff118e6fc10f8U, 0xdbe2f9ed2009f4ffU, 0xf52404bd051a13ebU, 0x22e7f1d8fee3f7f7U,
  0x5e50b01f60ffaf2U, 0x1bfae2f60223f4deU, 0x1ee7f4fd07f009e3U, 0xf30ae8e8f9fa1d0dU,
  0xf4f427bb1007f000U, 0xe1041dedeedbdcdaU, 0xf2f4ff19fe0cf3e5U, 0x80905141718edffU,
  0xcf7ffe713da06ffU, 0xda260a0bf7f6fdf0U, 0xedf61110e905f9f1U, 0xe2e60cfdfa0e0014U,
  0x1e0d1501f013fd01U, 0xfa211e01ea1212dbU, 0xf306ee0b01fefef8U, 0xf0030c1df2fd00e7U,
  0xf1f111e2fdf211feU, 0xd0102170c0d0715U, 0xffd150df0fcfdf3U, 0xfb22e114d8f9eafdU,
  0xd1e0f0a0e2706e1U, 0x1b12ff18eaeaf7ffU, 0xeffd190dec080807U, 0x16f403eff2fe11e0U,
  0x191d04f105010003U, 0x14e6fee8f700033cU, 0xffe111d4ea03fef7U, 0xebec0d07fc000907U,
  0x7ffe42427191b07U, 0xe502f910b6d3df1aU, 0xa0afafff9ecedf7U, 0x8e9e20f023428eaU,
  0xfbdca62cf9efaa24U, 0x40fdf30cce100a07U, 0xec2d06cf1feb0224U, 0xd0b0be805e9e8feU,
  0xf2ef0e0d0700eff9U, 0xf1f61524f30322ecU, 0xf4f9dc02f303f614U, 0x152ffa1ef800dcfcU,
  0x6ece10001053309U, 0xfd600f623e4f60dU, 0xd12010ed906ee02U, 0xcefb08f50707110dU,
  0xe90f030b21dff503U, 0x12d7feff060ff504U, 0xe807fbdd050628d8U, 0x16deddcefae70802U,
  0x80d0110ee0901U, 0x1ddfeae71921e3ccU, 0x1ac00c03f3ef1d06U, 0x203cbe5000129f6U,
  0xfb051ad907140f05U, 0xc90427f8e4d0e4f5U, 0x518f9e3e901fe2aU, 0xff080229f8eef703U,
  0x710f2fa22cbf7e7U, 0xab1c13e41afcf0f8U, 0xfbf11b180f0ce2f3U, 0xedf01f01e7f702fcU,
  0xef230ffdfe07f1f7U, 0xe918f711fd06f5d5U, 0xfd190f01f310ebf9U, 0xf6cc13f6e639ef0bU,
  0xd3190aedfd0b0315U, 0x411fdfa11e41708U, 0xf6f21ae510f50918U, 0xde222c260006f003U,
  0xe4021515f221fbe2U, 0xfb0af202f7fb0f1aU, 0xf0d61820fa28f705U, 0xfee0f1ce7d707f5U,
  0x1003f2dc243006f3U, 0xee1cf2c8050d1bfaU, 0xec1a0d02fa04efffU, 0xdfed06f2f9cb00ecU,
  0xd2ebf50ffc05daffU, 0xf5e81eea04021c05U, 0xf8080ac1f3de1bf5U, 0xe1ead6d1f206fefeU,
  0x2d10e7f4dfdce3f8U, 0xf4d412070827e706U, 0xeee8ffe6e906e805U, 0x3391affe8e400fcU,
  0xed0fe5fa0008cb03U, 0xf7b92bedf513fce4U, 0x4fdf622fefcf009U, 0xf5041827f5f5c010U,
  0x5fef5d7ededeb07U, 0xdf0005fcfbe1f5feU, 0xf90c0dfa45b8e9ecU, 0xeb00e3e8eff10b0aU,
  0xf3fc0b0fecf3f9fdU, 0x1020ec6ec12ee29U, 0x11f6b504f2f2fdefU, 0xfef10a14fc00f1fcU,
  0xd0fcff000904ef0bU, 0xe1dcef04ee0625ffU, 0x17150522dbf0eef3U, 0x9fdf2e706f6dcd1U,
  0xce190c0a0602f014U, 0x11a3eee04fadf0bU, 0x2fbefede5e9e9f7U, 0xf0f50a1821f4fb12U,
  0xf410061e09e603efU, 0xecf50a06211a1207U, 0xf2fa04130b0eff03U, 0xafd1317ff0a04e8U,
  0xf41b01e007003406U, 0x29faf5f9e6171609U, 0x6121613eefde5cfU, 0xe826030925fe1706U,
  0xdec712fbfef30313U, 0x1f52e10f9efef36U, 0x15ee07f3ffea072cU, 0x10ffece40fe9e528U,
  0x190a19edfaffe9e9U, 0xd7ef1bc01204f02eU, 0xbf8d41226f5dae1U, 0x8dd023cf8f401d9U,
  0xfe1321d81a15e9f4U, 0xfb08e0cae10807f0U, 0x1c110708f5e5e408U, 0xfd0cfd0229e9f5feU,
  0xe8ee0507fff5f811U, 0x4eff10f0b1cee21U, 0xf91721100b233713U, 0xfbf1e70105f8f80fU,
  0x120c12d7c7fed8e2U, 0xf3fde9f7f819e5fdU, 0x3010fd3ed0af2ffU, 0xd7061bf2e1d40220U,
  0xfd0005040111de0aU, 0xc7db3705ebfd01e6U, 0xf00fee0cee22f005U, 0xf014fe12df140b16U,
  0xff08d5e70de8ef04U, 0xd90b19faebe104f1U, 0xaf3f007da07fdU, 0x908e8f002de00f6U,
  0xf4fd1c18f7ebf7f6U, 0x190df9d1e90a07f7U, 0xe5eace3cf0101006U, 0xfef512dffafef2e8U,
  0xf4fffc0af605fd03U, 0xe3bdfa05e60302fdU, 0x10051cd8f1f800U, 0xfcfcf7f40009f5f0U,
  0xfef420220100f606U, 0xfcfa1308fd12f50dU, 0xfdfbdcf0f4f808f1U, 0xfce21debfcecf0ffU,
  0x1c270a00fae9f3U, 0xe9080c120a1a08fbU, 0xcff6fc1706eae2f3U, 0xea061dfd041003f7U,
  0x1e17e8f3fdf41df7U, 0xaf200ff050de8edU, 0xafa280e0208f7c8U, 0x500fc0de11918feU,
  0xf3e6d4b8fd04f7f3U, 0x50203f00308fe0dU, 0x19d202f517f80309U, 0xfd0811ddf4b9ed03U,
  0x2303e9f4f3f9f403U, 0x6041af6ffddfa05U, 0xfd0ce62213d3e90fU, 0xe3e3f41d0ee40cdeU,
  0x18fc09df00110de5U, 0xfd02f6e903f90201U, 0x20a1105fbeafaf9U, 0xf2fef8fbf3b7100aU,
  0xfe0afedf0cfcecf1U, 0xe309e40ef2fdf5feU, 0x505121702f91e0cU, 0xefdb08e00aeefdfcU,
  0x10fb12e9dcf4edebU, 0xe908d801fbfff7f9U, 0xf71d37ef1c0d1c0bU, 0xdd0afbf6e2f1fd00U,
  0xf06fe0bff1de9f1U, 0x4ea2a09fb0b00f6U, 0xf211e50df8fe0f03U, 0x50604ed10ec1b17U,
  0xafeedfef3f3deffU, 0xe5f91017d805f802U, 0x613ed02fee4ebedU, 0x1c0204e0f5e3030cU,
  0x1fe0902f2fdf5f4U, 0x2711edea020d27fbU, 0x5e6f624faf619f1U, 0x10ee09e50af9f003U,
  0x1101fe1c13080c01U, 0xe4e5030cf303f520U, 0xf60efa11f2fb09fdU, 0xe7fef4f408e8e5d8U,
  0xeebff0004f71614U, 0xfce8eff2e7f8ff02U, 0x200e0619dcfd1a08U, 0x5e8d1f6f8f11516U,
  0x110900eb0706f2f6U, 0xeb0d2009ffec0500U, 0xe4e91c0b020af9d6U, 0xf50e1111fff50106U,
  0xeb28f403ff010efcU, 0x8d2ec01f91805f3U, 0x4e0dc1dedfcebddU, 0xfbe40a1fcff5fb02U,
  0xe7d3dfdff92b070eU, 0x11f7faf0fa061c06U, 0xf505fd14e4f7eefaU, 0xe9ec0fddee17ecefU,
  0x1b05cb0a0a01ede6U, 0xf5fd1deefceb080fU, 0x160aee11ecdf0feaU, 0x60d030608160af7U,
  0xf08fdcdfc040cfaU, 0x140207f1f6f2fefcU, 0x403f00710e5ebfaU, 0xe903da0204fa1810U,
  0x1a04e4fe0518ea14U, 0x503ff06f7f5ed0bU, 0xcf803f7fc03f514U, 0xfbe111e5ece1fe0aU,
  0xcf5fcfff508ed09U, 0xea23cf07e113fdecU, 0x30110ef28221513U, 0xc61304fc09f005f3U,
  0x7f2de0df507d30bU, 0xf2ff1d05fe0efff6U, 0xf6f3dd0bf9fe15faU, 0x10009e9f00ace03U,
  0x17061ee4ebe4fcfaU, 0xefd03fdedf601ffU, 0x3161411f2f3ed02U, 0xeb01e9e101fcf50eU,
  0xfaeaf8fb0c07f5U, 0xd15e8f0fffe03d5U, 0xf304fd00121500efU, 0xfcf408e40501f3f4U,
  0xfaf7fd070efc1104U, 0xd9e7100cfd05f8f8U, 0x1c10fe23eee704f9U, 0xde11e2070dfbea0eU,
  0xf60ee80c01ecf1f1U, 0xf03db04e9ff0a05U, 0xb11f507f7fbcb07U, 0xf3e803ffecf30805U,
  0x3edfa03eafdfd0eU, 0xe1fe2c00effb11ffU, 0xf2e20a1011e9dff4U, 0xfb1b18ffeefb020dU,
  0xecf2040a00fc01fcU, 0xbece90afe0fe6feU, 0xfaef16f9f61502e5U, 0xbfffd11f8e9f40fU,
  0xe7eae208f52a0cfdU, 0xaece9f7ee0c0609U, 0xfaec12fd0600f3e6U, 0xf504091cef2bedf3U,
  0xd308fde3ffff03U, 0x3051ad40105ff02U, 0x81200f81410f5eeU, 0x1f3070b09fbffffU,
  0xb04f5dc05060509U, 0x3fa04f805030004U, 0x4f001f70cf4f405U, 0xcb15f805d5c401f9U,
  0x2523e308eb0aed0dU, 0xdf08f9edf015f9faU, 0x1f00305ecf8ff07U, 0x1e3dde20101f203U,
  0xfff311eae200fcfdU, 0xdc02e1fc1803f909U, 0xddeaeb06ed0d0815U, 0xd61beeed19f106e4U,
  0x104dc0df4eae80aU, 0x1916fb1005150c06U, 0xf5eef602f7e40a00U, 0xfd0efae801fd1c0cU,
  0x13fde4d709ecf004U, 0xeae627fc0cf42603U, 0xfe000a03e30ce7eaU, 0x1407f51f051216fcU,
  0xf8fff011fafc0806U, 0x1210fc12edda00e2U, 0x140f14100d00f6ffU, 0xb150fee0aebf7f3U,
  0xfef1ea0101f0fa16U, 0xd5f3f60e0af2ddfeU, 0x1008290af20001f9U, 0xf4fd0509f6e6fb1dU,
  0xe4cac01702f5f8feU, 0xfffef4fdf1f40607U, 0xf016fefd1901e7f3U, 0xfe04f5f9fef0e605U,
  0xbeff6f6fafa0ffeU, 0xf9150a01f5040911U, 0xeff30d092ef4f0f5U, 0xe70d1918ed060005U,
  0x40420100d0a340fU, 0xfece0403f50be7f4U, 0xf002f308f70eddfbU, 0xfdf8fcef02fa0910U,
  0xf2e3dfe9ecfefef7U, 0xce000090a0b0c08U, 0xfbb2fc0eec0e0cfaU, 0xe0ff1a09eed9defcU,
  0xf60908e80ffaf90eU, 0xdd0e180201f913f0U, 0x91e13f70b021a07U, 0x22f20205f3eef8eeU,
  0x3f2f4f3efe801f6U, 0x1116d2effe02faU, 0x2fff2f0fff000ffU, 0x1608d2bee202d911U,
  0x2d01d2fbf00de2eeU, 0xef0dfc0ef2f8f4f2U, 0x18060e13ff03f41dU, 0xf9d2ffdd0d12060fU,
  0xfd09f41d02e80705U, 0xdf0ce5ff2cfdeac4U, 0xfcd5da14fd1202f2U, 0xee1b0c11261612f0U,
  0xe5f1ee0d18220705U, 0x172f110cf804fffbU, 0xf52ff8fcede304ffU, 0x9edf5fef0fcf806U,
  0xf909f6000ce7ed0bU, 0x1006feecf90bf909U, 0x800fdfffd02eae6U, 0x1fbc9fa0b0efefeU,
  0xbecfaea02050b09U, 0x1f040615f6e91a0dU, 0xe41205f7fced0711U, 0x10fcfbffdef7e4f3U,
  0x3e00ce02fffd0602U, 0xf1ec0d0533fbe2ffU, 0xfcfa1aeceef714fdU, 0xf017c10f08ef00feU,
  0xde16d81b0c02cff3U, 0xebfe1505fdf3e614U, 0xd509f9090eecee1cU, 0xfb11080804e50203U,
  0x4f5f0150fffecf3U, 0xfbfb1cf90c09060cU, 0x1cf71403f8edfb09U, 0x19ff0610fdfaf907U,
  0xe5faf208f411fa0bU, 0xfdce31f8fbfe09f2U, 0xfbedfafd0412ebe7U, 0xf7c80820eedbfbfeU,
  0xdbe0f608f20afc0dU, 0x16010ae6dd061004U, 0xfe0ff7edf6faf9feU, 0xe713fb1c1400fde6U,
  0xeafa031e12020eeeU, 0xfbf511dbf6fe0bddU, 0xcf51eeb00fe21fbU, 0x1a11f625efeffff8U,
  0xf6f6f5f90b0fffecU, 0x511020bffed0912U, 0xd0806e5fdf503ffU, 0xe7f4e3ece2e2dc09U,
  0x21e40810fef9e000U, 0xdc00f5000aeeee00U, 0xcf6ea0111f711faU, 0xefcf80110ff0200U,
  0x80a013811fc0400U, 0xfc0fcb14090404e3U, 0x28f5e90d05170201U, 0xcd091307001911f1U,
  0xf8ece9d10000f505U, 0x17113bff120407e6U, 0xe90a2c1c02d918ffU, 0x28f0e6fef6eafb06U,
  0xfd0c13f4f2fef301U, 0xf20418f4120de818U, 0x19d30c0feb0df8f7U, 0x200e3e815000307U,
  0xa0f0cfcf0f111edU, 0xc1f0a1d01f3efffU, 0xa11f90e25231004U, 0xaf7e9ca05f6d701U,
  0xe20bdefd01f30211U, 0xe216f102e808ea05U, 0x34f81501e2ed1307U, 0xdaffcbf606ee2f05U,
  0xf207e10ff7f1eadbU, 0xec1bf822e9efeb04U, 0x8101eff2df6e901U, 0xe014090bf7eaf4eeU,
  0x2f3f10ff80809f4U, 0x4f701fe05eb0203U, 0x15e1090b00ff03feU, 0xf4f90802daf906f6U,
  0xfb0c0deffbe8150bU, 0x10c0c02f90a0001U, 0xe5f1da0a0e03dfebU, 0x181df8f6f0051718U,
  0xe7e028f21a101604U, 0xe0d91502e505f2f8U, 0xfde5e909fd100700U, 0xef1d0f1200e002faU,
  0xfc2a02f5f4f3fdfdU, 0xfe0410d5f70809faU, 0x28f724d2fb07050aU, 0x2000be4ff050110U,
  0xfe1fde8cefd0ed4U, 0x181afdebf7ed2203U, 0xee0300f005ebfb16U, 0xa13e0fbe80ddd07U,
  0xc02dffe1afb0313U, 0xcf06f80aff12edf0U, 0xfae7b2e504fa0fU, 0xf9e8fbeafe0e18f1U,
  0xf709cf31050714f4U, 0xdc01cc0c0212fac3U, 0xe5d3eded04180211U, 0x50b0505fc060befU,
  0xdcda07eee5f5110fU, 0xd6ed1df51cf604ceU, 0xf904081502d21006U, 0xeffaddef09f60d07U,
  0xee00fc030502fff4U, 0x241616fe0efd140cU, 0x11f40b07d601fc0bU, 0xf6d91624f8fb0803U,
  0xea0c07df0ee811f3U, 0x15f006040fefc7d7U, 0x1fe0fd0404ff04eaU, 0x11f9e0e80901e8f4U,
  0xecfbeaecf2e50a0eU, 0xe513f10bf4f90df8U, 0xaf3f419df0a0906U, 0xe419f0fbfbf80defU,
  0x41cc31f050df2e6U, 0xd70e0b07fa15fb07U, 0xf210201cfd0bfa01U, 0xf202031e0bdbf00cU,
  0xf20007f202fffc00U, 0xf911cdece7e91713U, 0x6f5f1f3fe0fdaf6U, 0x19ea2911eaf6ecfbU,
  0xcc12f703f6f11707U, 0xfde31007faf015e6U, 0x618df2008ffdc05U, 0xaf30330e0f8fd22U,
  0xf6fe0808032bf12fU, 0xde0701fa07dffa0aU, 0x18d8e10102051218U, 0x14130516e8dc02f2U,
  0x151909ecf804ec10U, 0xfc00edf6fe1226fcU, 0xfe1508dee01100f9U, 0xfcdd0408f01afd0cU,
  0x11fa11d1f9f00ff5U, 0x1d2605c3fb1c05ffU, 0xf00132f0e9e8181fU, 0xf70fcdd2c0d5c910U,
  0x2530f0dbf00efa07U, 0xd8e8080af1f8f9dfU, 0xff05199ddaf6c915U, 0x220427dffc190e19U,
  0xfae4d636ef0120e3U, 0xf033c52224f4fcb7U, 0xcfe9ccf41e01e827U, 0xdf2114f117fa1af1U,
  0xce0f02a901f8f215U, 0xe4dbfd12f5f9fdd0U, 0x22c7e53112d7ef0aU, 0xeb1603e7dfd5fefaU,
  0xf00f0bedfd1e0e01U, 0x14fcece8f01811fbU, 0x1cf0f20b0dfe01deU, 0xdc0df70126040901U,
  0xc8f6ffea23f70d06U, 0x3f90b172108e5d8U, 0x1fa504081ffe24fbU, 0x2319d2f81efefdfdU,
  0xe306fdf2f3f40209U, 0xef2f0117fe16fef3U, 0xf8e62128f90b060aU, 0xe000d809000b2affU,
  0xfb14d12cf6f7dbfeU, 0xe2ff07ec11fddff3U, 0xfc161309221aecd9U, 0x1cfd020112fbe7e8U,
  0xdfaf224fcf91f28U, 0x7fab80203f41d07U, 0xe31302e5cb0d13eeU, 0xf6ea2af3fe0108fbU,
  0xcf0e000605fa11feU, 0x1b601fde3ff0dc5U, 0x703e80816f7f009U, 0xcd8ff05fcea02fbU,
  0x16e3f20e16e50cf5U, 0xf2000d050f0bfa3cU, 0xacad9f3f305080fU, 0xfc0f00f0fbf500d3U,
  0x1aee000e2cfde50bU, 0xfbfbebee0aed32e9U, 0xf9e5fdeef70af9ebU, 0xf105212befff02e9U,
  0xf7ef0128041221f7U, 0xff0cffe1ccf8120eU, 0x304f7fff1fef70aU, 0x116f10aee01a90cU,
  0x7e2edf2fbfef7f3U, 0xfbfa02f9e7072cf9U, 0xf728ff2c100b02e6U, 0xf8f923090514f6efU,
  0xf8f6fef0fe110318U, 0xe4fa12eee013f1feU, 0x7f0f82426f6001eU, 0xff04f70110f40a0eU,
  0x51812f8d213f5fdU, 0x610d1f30f00eff3U, 0xfafd09f710ff171cU, 0xd1a0d2405f3d316U,
  0xc0f0ef3de041604U, 0xfcf9effc050c0301U, 0xfa15080008091807U, 0x116f90a14e7e906U,
  0xfafefb051305f704U, 0xff0623d100ebebe5U, 0xe60f06f5051e1b11U, 0xf9f2f5fb16080f2bU,
  0x40bf4dcf40328fcU, 0x105ed18f5140c11U, 0x3f7f7f12300eeefU, 0x1e0c2a2a150ceef0U,
  0xe5f8f304fef7f7feU, 0xf60303ffe6082bfdU, 0x917ed1d2a0adcf8U, 0x4e418fb1dfb18e1U,
  0xf7f60501f1051400U, 0xe314dff9102804f6U, 0xf101fff71ae7210eU, 0xf705fbfaef02deebU,
  0xdf0bfff8e5fd0013U, 0xf6fa1abbff1406f0U, 0xf5f4fc05fa0104e0U, 0xfa010d1309f0f807U,
  0xf2070ef5f805e4ebU, 0xecec0100ff0ef813U, 0x16fafd0609f6d023U, 0x2b07112e1a0c45dbU,
  0xf10703fcf62104efU, 0xfaf409f70efc0bdbU, 0x120604ebeb2a1ffdU, 0xfb050101f5f4ea2bU,
  0xf804f707da040aeeU, 0x51602f8ea0709feU, 0xf705ffe906100008U, 0xd3200009fe06dc01U,
  0x2315f90e03df02d7U, 0xfa030005d8fe01ffU, 0xf11004f90607f1ffU, 0xd17280b0611fb11U,
  0xf6f7fef8fefa05f1U, 0x1a0716ed020cf2deU, 0x8fcf812f7f5f521U, 0x603f9f716f71318U,
  0xf6010de705071303U, 0xd4fdea0f09dd1e05U, 0xfafdfffcff0d100bU, 0xa0800111107e514U,
  0xd7feeeea040d12ddU, 0xf8fa01f205110f0fU, 0xa01ff0010fbf8f9U, 0xbeee8fe1fefd408U,
  0xfc06f807fe0118f4U, 0xebfb09f1fc1807f2U, 0xe71404fef51dc0f5U, 0xcfa04fcfeef0f01U,
  0x406e8efe6fd0af2U, 0x6f6fa06f4f80b0eU, 0xfcf704f620fdf0f7U, 0x111325120d00fb0eU,
  0xe61f0003f203d704U, 0xf2f8f804fdf618f8U, 0x30b081409fbe6f6U, 0xeb03fff903bbdaebU,
  0xf104f6f8ef081cfdU, 0xe51eeef610fbf902U, 0xe3f5e9ecf3fd0409U, 0x607f2f61406e7fcU,
  0xe501fdfff20bf7f9U, 0x1f3e7cef7f1e60dU, 0xfbfc0803f5f9f7ffU, 0x1522eb0013f7eefcU,
  0x413dde912f5f5f7U, 0xf2fdf801eff40113U, 0xf9d8f0f8f5d7eb0aU, 0x1af5f622f40712d4U,
  0xef0202000e18ebfdU, 0xffa19120bfb100aU, 0xfaf413270e1e0be1U, 0xfa07fc0a0604fb10U,
  0xd14f4f50cf8f20eU, 0x1304000cf6ffff00U, 0xf90100f702feff03U, 0xf050f0807f8c5ffU,
  0xd1203e008e115d5U, 0xbf8fffdea18120cU, 0x915020d01ff0af7U, 0xa0404fc050f0aeaU,
  0x3fc07f60d0500faU, 0xfb1703eb041c08eeU, 0x1d6fcf9f904f503U, 0x3f5fa0000e40009U,
  0x705feebe0020610U, 0xf3f8f2fe231026ffU, 0xfe010902f7fbff05U, 0x81709010402eff6U,
  0x30bfde409071d05U, 0xf9fe02fb0b0f0816U, 0xe60df6fdf7d3130fU, 0xfaf4f7062a170df1U,
  0xfa03fe0105fd0002U, 0xe9090edafff711e9U, 0xe2020503fb04e3d2U, 0xf7fdfbfb0100f50cU,
  0xf113150e0b000520U, 0xfec1d1407f910f5U, 0xfa00f8f1091beeedU, 0x61e281e05080016U,
  0xf9dffa0ff915f208U, 0xfcf7f8f5fcfa1109U, 0xee03e21a04f91403U, 0x14e70f0e05daffcdU,
  0xfbf2f203f40804f8U, 0xfc19eef8f60705feU, 0xb3f502ef04fcf9faU, 0xf004fdfa0cf5ee04U,
  0x6fffb0d080f04f3U, 0xeee80ce3f8f60a02U, 0xfcf80114eaf0fbU, 0xf6f00a0a0d270d05U,
  0xfff7edf308c71c02U, 0xfbfaf9000bfbfe00U, 0xfaebfd0ef1e1eaeaU, 0x413d7faf41fe2f8U,
  0x20500f71feae1f0U, 0x41006f6f6f50aebU, 0xe90af51b05fe03fdU, 0xf9fdfb010306f725U,
  0x512e5fdf4fbfa06U, 0x61cce13f80318ecU, 0xfa05040a0b04df14U, 0xe91a12071524f405U,
  0x130c03eb09dde5d6U, 0xdfef7eef205150fU, 0xb0714f8f6e303f3U, 0xcf018effff51ff4U,
  0x30001021005010dU, 0x20ff03f4151502f3U, 0x31bd9102d02f527U, 0x3faf7faebef0207U,
  0xf50f09eeef100f01U, 0xfdfacbfa04e10b07U, 0xf6f801f10c00020eU, 0xecfd0cf9fcf41d0cU,
  0xf41204ce150e0aedU, 0xfe03fa0419040a07U, 0xf3ff080b06ff0900U, 0xf4040f0e0bfa0effU,
  0xf6f8f9fc02fa0c0aU, 0x140507db28060affU, 0xfadef3ff1a15d6ddU, 0x8020800f0f00713U,
  0xf9fefdfd11fefd07U, 0xfd05f30a0c0016f2U, 0xf7f601fb2110fa01U, 0x60b070100f5de0cU,
  0x5f0f20bf7fae20eU, 0x8fff2fdf4fa2708U, 0x9140b18e5fd01f9U, 0xfaefea11f7120be0U,
  0xf005f304fbfa0a03U, 0xf406ea06edf4f5ffU, 0xe7feff16fff905fdU, 0xf701f30a09e905U,
  0x713f711f8fef409U, 0xece1ec0ef2eee2U, 0xfaf9f8f9f4071104U, 0x2170af7022e1decU,
  0xfdecf8d9f8ff09f4U, 0xf8ff03f504ef02U, 0xbf9dbf7fa18ede0U, 0xe02dee90d08d6fcU,
  0xfafd02fdffea06ffU, 0x91cf9ec0b1bf3e0U, 0xf10ce1e9eefaee21U, 0xfcf802ff0cfd0a1dU,
  0x10ee900fdfb040aU, 0x308ffed15facbf4U, 0x6040af8050cfcU, 0xd7f90ef1f70ce717U,
  0xfa150a05130bdde6U, 0x10f7f7f30b012113U, 0xf0b04f9f0fee9f6U, 0xfedfbfe06f616efU,
  0xef02030705f50e0dU, 0xeefaf2fc0ff8071eU, 0xfcf0ecf5db1310ffU, 0x20308f51301f806U,
  0xf81cf0f6f40a0409U, 0xd5e4c100e7f5f6fcU, 0xf6f5ff02f9f90c0bU, 0xf0af4fc0df6f706U,
  0x1616fbfdfc1a10ddU, 0xf9f3f6fbf7001bfdU, 0xf817f90b04fe1803U, 0xf8002304f4f81310U,
  0xfcf1f400fe13f301U, 0xfeea02ecfff10801U, 0x2e0e21ae5f202f2U, 0xd0209f7fe010613U,
  0x3fceffefef1fe1aU, 0x1108e6290cf2f6e8U, 0xf5fafcfe17072cfbU, 0x5fcf7fa0e030106U,
  0xfbed2a0ff403f815U, 0x8f202f607000e0dU, 0xe5f7110408fdfc06U, 0x1f6ee1ff00001efU,
  0xef0502030bf60805U, 0xe9f1e6030cfe01fbU, 0x701f7f8ea010af6U, 0xff03f6f5fcf5f21dU,
  0x50efe0100faf403U, 0x18dc0912fbd0fdecU, 0xfdfafbfbfdfafd08U, 0xfafd1008f90b0af5U,
  0xfbedfa19f80be7d7U, 0xf7fbf7030af9142cU, 0x2b0be60900befc02U, 0x521d4dada11e4e1U,
  0x102fffd01fb0ce9U, 0xf80a05f1fd150506U, 0xed100732f7fbed45U, 0xf4f805f41ff2fb03U,
  0x50af714fe11fc00U, 0xf606ecf3f4dff405U, 0xf8fbf2fc0607f5ffU, 0xf3f0fdf3030ffbeaU,
  0x9f4ff04f600ebe7U, 0x10fc00fdfaf30420U, 0xfb18f60111070dfbU, 0x16fa08eaf4f803e7U,
  0xf104f506e3f801e4U, 0xddfc00f7fc08ffe5U, 0xe5dafbffd9070115U, 0xf3fb07fef4e6ee1aU,
  0xcb0005f6dcfaff02U, 0xeff2d704fd10dcfbU, 0xfa0a000500fc0bfcU, 0xecfef9fb01f3f3faU,
  0xfc0210f2d7090000U, 0x700f5f708fe12faU, 0xb0af6fa08ff02faU, 0xfcd9e9f50d111708U,
  0x4f8f3f9ef07fcffU, 0x330814e6eae0001fU, 0xefdee0f04010518U, 0x906f9050e0cf2fcU,
  0xf0bf5fe1ef9f712U, 0x1b03e61e17110401U, 0xfef3f8fcce010bfdU, 0x505ddef1302d2fcU,
  0xef02f1ec14e90d0dU, 0xbfe00f101f83002U, 0xd1cfbfdfd010af4U, 0xe6fa0e011be00cf9U,
  0xf5fcf70510090a13U, 0x1007f5f6e20309f2U, 0xef00d8f4f4f6eaf4U, 0xfdfdfa0207f4f91fU,
  0xe1102fe0d070ff9U, 0xeef0e20bf9dde3fdU, 0xf500f6faf007fd02U, 0x3f4fef6f5fcf806U,
  0x1e3fbf807d00fe9U, 0xfffeff02fe0c09f6U, 0x1dfada1a18f4fedcU, 0xbf4e1ec1d24cbdaU,
  0x1f9fb02e5e71301U, 0x90af9ebebf40af1U, 0xf20b33dffafff52dU, 0xfffdfe0917f7f221U,
  0xf3f4090703000908U, 0x40bdd0605060423U, 0xfd04fe0f0402e401U, 0xe0fd01ea10fefc00U,
  0xd1e10bf2f3f5efecU, 0xfdf4f7fb0f0c01e9U, 0xfc0b07ff1a0704d9U, 0x70d0df8ffea0adfU,
  0xf9faf204edfa02f8U, 0x16eadd0c151308ecU, 0x2d0ff3fdfd010615U, 0xfef60600d0eff50aU,
  0x502f9eb0b0406f7U, 0xbfbf3ca0107ffdfU, 0xf70af9f5eceefe14U, 0xbf8f107f403f0f5U,
  0xf0f710f9e405f3faU, 0xfff90af70bf31ef6U, 0xf4050f00061309ffU, 0x10db07f7fee3f3ebU,
  0x1fdf8fdeefff804U, 0x1315fdec2b040808U, 0xfe15db12300afd03U, 0xfbfe0804e4e7ff0eU,
  0x1109ff08db0df6f2U, 0xe10ada04fa140bf5U, 0xfd03f2fc03fe0dffU, 0xf407c7e603f2e6f1U,
  0xe5ef06f309f1c204U, 0x1f8f5060c013a18U, 0xe60e0ae8f3ff0cdbU, 0xeb01140111f81df3U,
  0xf8f504f5f9f7f712U, 0xfb07f20ef60808ecU, 0xe21bfa00e0071f07U, 0xfef7f7fa03faef0fU,
  0x1117f80305feeee9U, 0xd5f710fa270cf1d9U, 0x40004eefdff06U, 0x71cffe90a0207f5U,
  0x50105e50ef5f3e5U, 0xf90606f3eef2fa08U, 0x10fffff507e706e4U, 0x15f7bce0f6f7deeeU,
  0xff01fafceff70907U, 0xff4ffe3020a13feU, 0x11e19e4f0cddd01U, 0xfd05f6fafbe9f418U,
  0xdfff000040813f9U, 0x10edd912eff21a0dU, 0xf0faf90bf3f3eefdU, 0xf81101f939f8020dU,
  0xef0fff1201f3031aU, 0x4f4fff5dffaf8e5U, 0xfd2012fe0c1015e1U, 0x100111dc04e41317U,
  0xfbfe03f8f6eef60fU, 0x2707f8150efffa19U, 0x8bfd060dffe90ff9U, 0x7f0fdf702fdf303U,
  0xf7f004dc0df108f4U, 0xf7e2f5dc0ff209deU, 0x2fcf5f4fb14030dU, 0x9ed0dfb1304edf9U,
  0xe5f600d40dfa07f9U, 0x8f500fbf304f20aU, 0xfb071003f3170411U, 0x11e9f807dde3f1e3U,
  0xfbf2fa03080ef3f9U, 0x21f210ed021211daU, 0x30cf2f0050cf4f3U, 0x504050203f5fd28U,
  0x404ed0de3f116feU, 0xe010c9f61bf603fbU, 0xf9faf5fc0d0efdf7U, 0xf802f6e40116dffcU,
  0xdf03eb01f6f0bc06U, 0xfaf9080afe310dU, 0xf9fb051c0900f8faU, 0x17f30cfc03fc231eU,
  0xfb05fbfbfcfff2f9U, 0xff09f205f92006dcU, 0x71ef002ff281610U, 0xfbf5050407f6feecU,
  0xfc1103f1fcf511ddU, 0xf00afc16d3f3faf4U, 0xf7f804fdfe020ef5U, 0xf8040102081df820U,
  0x8fb0e2108f0eafcU, 0xf506f5f1f8ee14daU, 0xf5d40cfeecf026fcU, 0x190e1be8f024dfdbU,
  0xfb000007fcfffeU, 0x713eef4e71b11fdU, 0x180edcdc0df406efU, 0xf7f9f3f7f6f9ed0eU,
  0xeb060436fb1ef703U, 0xfaf4bcf2fee0e4f7U, 0xf4fffbfdecef07f9U, 0x82503f2fd1c1807U,
  0xd112e6da0530bfdeU, 0xf9f8fdfc04fc1102U, 0xea2116eafa2517faU, 0x70e12ddf518e3f4U,
  0xfcfbfbfbf0fdefdbU, 0x1bdb0d1937f1f80eU, 0x1101ed16e61106fbU, 0xf4f808f9be1c0811U,
  0x2fd05d4e000faf2U, 0xe1faeadddd03f6b2U, 0xf605f7f8fd070907U, 0x132205051f0202U,
  0xdcf8fdf305f502f3U, 0xf8ef0d0307eeccf1U, 0x806110a0e01f008U, 0x16fef10104ecf60bU,
  0xf9f5f703e902f817U, 0x2bf90cde23fd0eeeU, 0xed01fa0b4505fbf3U, 0xfb020100de2bf81fU,
  0x250bd4ebf9191ae6U, 0xdf16f8f1fa1ae4f4U, 0xf703f60105f6ff00U, 0xfd04fb11f504c1fbU,
  0xee07d316090bde18U, 0xfdf4f9ff0b003206U, 0x3ff06fd2816f8e5U, 0xe0610fc07f2ff13U,
  0xfc030607f4e80022U, 0x1f04db0dcf0d02ddU, 0xe22101e90a0f0a08U, 0xf702f6031efff6e4U,
  0x221eea0202fcf4bfU, 0xc62df8eae002f016U, 0xf1f9fd01f311f8e1U, 0x18ff12071bcef305U,
  0xaf520e02ec5ef1aU, 0xff0502fedd3febf9U, 0x15f801d10c0f00e3U, 0xf5e23108ee1be414U,
  0xeffa0a0104fd080dU, 0x1843e5e60421fde2U, 0x200bdf820080bfaU, 0xf201f3eef30efd04U,
  0xe0a1af8dfeffa02U, 0x130f00c2e7dffe19U, 0xf21ef60611101dcfU, 0xfef6e51a1afa3b1cU,
  0xfce70d0f06f803f8U, 0x8ff061beefd22f4U, 0xa000210cb04fe13U, 0x200bfd31f2101ff3U,
  0x7e7fee720dfebddU, 0xeefaec070f0ef6f5U, 0x12c8b3071adf2733U, 0x8fe1aeafa22da20U,
  0xf82bfae9ffc3f11eU, 0x130403261fae1109U, 0xecc122d804fbd50dU, 0xe0ef9100cfb0fd0U,
  0x18f3f3e5f1fa1c07U, 0xae9d20700cbd4f8U, 0xe20b0aef12f5f5d0U, 0xaf9d3f5daf303e7U,
  0xf4e109dfeaf32213U, 0xf5fe11c42031a8b3U, 0xeb0de6e202f1dc08U, 0xeeede504020ac518U,
  0xfc011904e6e7f7f7U, 0xf6fddefd02fb0ffeU, 0xbbd5f41112e01fffU, 0x7f1ea1cef3111f8U,
  0xc103dcc8fe012a00U, 0x2fe2b0fefd4f8ceU, 0x1bfcfc0af1a6eeabU, 0xcf0eaf80116150fU,
  0xfa0207f01ed204fcU, 0x2fbf80dfcd1191dU, 0xeaf70de2efcefddfU, 0xef0923d3e2fd09f4U,
  0x91adc1409f0f814U, 0xd9fcf0ff062f26e0U, 0xfbdff2f6f41c17fbU, 0xeceeeb0af22d0bf4U,
  0xffeafcfff539efe3U, 0xf2fdd8f8f30bec0dU, 0xfbd3e10dfe1311feU, 0xfef11708f0154006U,
  0xf2e803da0423f6U, 0xf1f50fde0cf01a0aU, 0xb1bd819f7e51306U, 0xf2f2d61213e9eef9U,
  0xed040c01f1e6eff2U, 0xbe6f5d712eb0b03U, 0xf00d030014000be1U, 0xf051b0de229fdU,
  0xfffdf9ec0b16df00U, 0x10132f3015081de0U, 0xb03fe1ec8fef21cU, 0x51c0517f5fff208U,
  0xfff6d6e410feddf8U, 0x71a0204fdf811d9U, 0x40003f808f21eecU, 0xf91a0bdadb06e41eU,
  0x170af5df14fef51bU, 0xbee000e08f60f07U, 0xfe052a0113fb0605U, 0xaf7f3fe02fa0df6U,
  0x1ff11fece20d0210U, 0x25e9f60e0010e600U, 0xef3f614e90bdeU, 0xcfbfff8faf00cf9U,
  0xe071405d2040a00U, 0xf9ff12d42e1bddbfU, 0xf7fbd3d1010bffdcU, 0x18250241fe16e104U,
  0xf405fe011aeb0903U, 0xd601f3d71bf409f0U, 0xc1c9fd121b0413fcU, 0xfd05100aee0a150eU,
  0xe612f9d5f5102f00U, 0xe131306f8eeeecbU, 0x1002ebf7f4c308ddU, 0xfce900cce90ce729U,
  0xf9fdf6dd18b9fff7U, 0xfff500021ad11e18U, 0xd80509f3f1e906f4U, 0xdf0f11f105ef15feU,
  0x1917f400fcecf805U, 0xd2e5f4f6f20d0becU, 0xfce7250208080902U, 0xa06fb05e50002e4U,
  0xf3f631f7cd080021U, 0xdf0f104f6090d09U, 0xeab3fff4fd071a08U, 0xf7071a0408100ff0U,
  0xdcfc03fced0117faU, 0x6eb0c0df6081e0dU, 0xb1af12ff7170402U, 0x1ef8df2bfaef0106U,
  0x14000e08e5ebe804U, 0xfdf8f4effaef1af7U, 0xe814fefb240b0ec8U, 0x13edfb000a01190cU,
  0xc9fa12160cef0415U, 0xf8052ef1fbfc05f5U, 0xf050d03ef130820U, 0x41bfce7e512d71aU,
  0x60c0ae312f301efU, 0x31f0a1112e8f3f3U, 0xf4cb180a060ff6U, 0xde0d14fd19fcf932U,
  0x17f9e8f01711060dU, 0xf7e2ede701160e00U, 0xe1a21fb190c14fbU, 0x2f6f8f50df918cfU,
  0x3f32fd92c040425U, 0x6f9f6f811fbf4f6U, 0xf7080a030df7fb15U, 0xff7060df0f9f805U,
  0xea07030915f4feffU, 0xf50507cb1a45dbccU, 0x1404eaeffb20ea1aU, 0xf9f0f825201bc11bU,
  0xf0fc092b100efef1U, 0xbef7e8df03e7f0fdU, 0xfce1fb080c10fa04U, 0xff122c13f1091417U,
  0xd70213fdf508fb13U, 0x115e8ef0af2e6e0U, 0x1705fd1be0d4e9e9U, 0x14facdd414faee01U,
  0xf1f22c0114ea0bffU, 0x7fe02f208f20b1fU, 0xdbf5fc0411e70911U, 0xebedf9fae1fb0a0cU,
  0x16201afbf1f8f7f6U, 0xe6e40af809fdfc07U, 0x1ef21903f108f115U, 0x1ed0a1bfbe91df4U,
  0xdf30dd3000cff05U, 0xfc14fd241816fee2U, 0xe9faf819ec090dffU, 0xd7dd1a062704fbbdU,
  0x1f1f50efc0c1217U, 0xeeec07ef0f07ff09U, 0xf60bf515f80eef24U, 0x2407fc00f7f906fcU,
  0xf8ed0a0e0611f50fU, 0xfed60523140bf100U, 0x719fff6120605c8U, 0xe0bff0ffe0c18fbU,
  0xfbd32f0d0c031cfdU, 0xc0007fcf60d14f8U, 0x5050404e91013fdU, 0xdc0febc4fdf9f008U,
  0x52414ef14edf4eeU, 0x2e0dfc0903f3f5f3U, 0xe2f3e9fbfaff0af8U, 0x280918d41326e207U,
  0xb00dff8f5ec00U, 0xd602f30d10ff080aU, 0xf20115010a06ee0bU, 0xfeee10f3f8faf1ecU,
  0xaee12001a10fe1aU, 0xf517f80ffc0ffaU, 0x80f12feecf0f8efU, 0x1809121bf1e915edU,
  0xef0410dff5ef06f4U, 0x210cf8e0142403e0U, 0x20020ffc09e91706U, 0x1e1fafcfe10c805U,
  0xe202f8f01b15dae1U, 0xfbf010dffde2f309U, 0xf7f2fa0f060e10fbU, 0xa05effc0b0dfff6U,
  0xfbf40609ed04f900U, 0xf41d030a12d7d20eU, 0x81901fc12acddceU, 0xfdefdbfd18fdfde9U,
  0xd7fc10e202d600ffU, 0x4e8f700171f0002U, 0xd010120106defff3U, 0xf1effdf0e5010e19U,
  0x1207f20018e7fbfbU, 0xbb0b1305fd1e0500U, 0xc0aecfa0a06ed14U, 0x18ff22fefceffa07U,
  0xfaf40bf5f52af120U, 0xd80d0729fafd0f04U, 0xef07e0030e0701e1U, 0xf0e081ae3f120eeU,
  0xfc01ff24f7170708U, 0xb06ffe60fe5e7fbU, 0xcf0ff1eee4f1fd2fU, 0xeeefea17eee712f2U,
  0xfff9fc0b0dfb11feU, 0xf8e42dd610051501U, 0xee09fe03f300f8e9U, 0xf009f40c11e322edU,
  0xf3df0005f5f433ffU, 0x260b0cebf8190804U, 0xf907ed020d0f0b06U, 0xddfe00f10003e304U,
  0x7fdee15fff9f9feU, 0xf3fef916eff7fcf7U, 0xd110f806f20607e9U, 0x4f817f7edfde715U,
  0xa21f4fbe8fee501U, 0xfaf90c1ef8f3030bU, 0xfc0103f4041c0e05U, 0x1604f1f7d4f902e3U,
  0xfe1409fff60d0100U, 0x17031dfb050ff609U, 0xc0717f8ecfbddfbU, 0xd19e2f60a0b0ae0U,
  0xf1090d1d0bf419dcU, 0x9fe06ed31f90a04U, 0x2bf7e808f4f8f4fdU, 0xf3fa0acc24d0dc10U,
  0xeefccdf91c0003e9U, 0xdd021104ffea0714U, 0xff05e30005fff905U, 0xfc04f10202efe607U,
  0x302def6f110fee8U, 0xce50f0c14d8e9eaU, 0xf400fd02e3c114f3U, 0xe00704200cfffcfdU,
  0xe7e4f1ec18e0f905U, 0xf09f1fc1221ffe6U, 0xda0e1313e1fb0702U, 0xddd40ffdfa180c16U,
  0xfe0509f900ef0d01U, 0xf7f7112fee180d02U, 0xbfb04f91bfafd05U, 0xf5020103f1ecfc26U,
  0xf20efe12f323151aU, 0xf1f2e407050823f9U, 0xeed2dc20f2f40108U, 0xc291f20f30411d0U,
  0xf105fc110109f916U, 0xe7061406f5faf21aU, 0xcfa1407f6fff21eU, 0xf20ef313f0eb1cf4U,
  0xfb03fe11010c081bU, 0xf5efd2d211070404U, 0xe406ec1006f3fbdeU, 0xf000f6ef25ed1309U,
  0xef3c207fefd1e11U, 0x1bf7fce715150900U, 0x5080b0303fc0ffbU, 0xc41d0f17f70600faU,
  0xf6dbdd0601fb12ebU, 0x218fdf6f90c0dffU, 0xd4eff9ffeef90112U, 0xcdee08fdf6f4f8faU,
  0xec0afa03f5f9ee09U, 0xee0c0413e7ee0bf3U, 0x14e7f9030326fbfdU, 0xef70002ecfbfeeeU,
  0xeb0fe9f8f903fff7U, 0xdf4cf080ffdba0cU, 0xe0f0af0fb0bf50bU, 0xaeffc03d2051ee7U,
  0xed0cf813e8f50df8U, 0x6f004f5170c0503U, 0xd90a01020a03fcdfU, 0xf6f40bc6f4e2b008U,
  0x170bf9f4fa0bf4f7U, 0xc00312f1dc01fe10U, 0xceaf4ff2104ff0bU, 0x10ffc4000902e4f7U,
